const unsigned char model[] = {
  0x1c, 0x00, 0x00, 0x00, 0x54, 0x46, 0x4c, 0x33, 0x00, 0x00, 0x12, 0x00,
  0x1c, 0x00, 0x04, 0x00, 0x08, 0x00, 0x0c, 0x00, 0x10, 0x00, 0x14, 0x00,
  0x00, 0x00, 0x18, 0x00, 0x12, 0x00, 0x00, 0x00, 0x03, 0x00, 0x00, 0x00,
  0x98, 0x24, 0x00, 0x00, 0xa4, 0x1c, 0x00, 0x00, 0x8c, 0x1c, 0x00, 0x00,
  0x3c, 0x00, 0x00, 0x00, 0x04, 0x00, 0x00, 0x00, 0x01, 0x00, 0x00, 0x00,
  0x0c, 0x00, 0x00, 0x00, 0x08, 0x00, 0x0c, 0x00, 0x04, 0x00, 0x08, 0x00,
  0x08, 0x00, 0x00, 0x00, 0x08, 0x00, 0x00, 0x00, 0x0c, 0x00, 0x00, 0x00,
  0x13, 0x00, 0x00, 0x00, 0x6d, 0x69, 0x6e, 0x5f, 0x72, 0x75, 0x6e, 0x74,
  0x69, 0x6d, 0x65, 0x5f, 0x76, 0x65, 0x72, 0x73, 0x69, 0x6f, 0x6e, 0x00,
  0x0d, 0x00, 0x00, 0x00, 0x44, 0x1c, 0x00, 0x00, 0x28, 0x1c, 0x00, 0x00,
  0xe8, 0x1b, 0x00, 0x00, 0x9c, 0x1b, 0x00, 0x00, 0xc4, 0x1a, 0x00, 0x00,
  0xbc, 0x1a, 0x00, 0x00, 0xbc, 0x17, 0x00, 0x00, 0xb4, 0x17, 0x00, 0x00,
  0xac, 0x17, 0x00, 0x00, 0x2c, 0x00, 0x00, 0x00, 0x24, 0x00, 0x00, 0x00,
  0x1c, 0x00, 0x00, 0x00, 0x04, 0x00, 0x00, 0x00, 0x56, 0xe3, 0xff, 0xff,
  0x04, 0x00, 0x00, 0x00, 0x05, 0x00, 0x00, 0x00, 0x31, 0x2e, 0x35, 0x2e,
  0x30, 0x00, 0x00, 0x00, 0x38, 0xe3, 0xff, 0xff, 0x3c, 0xe3, 0xff, 0xff,
  0x72, 0xe3, 0xff, 0xff, 0x04, 0x00, 0x00, 0x00, 0x70, 0x17, 0x00, 0x00,
  0xf1, 0xef, 0x02, 0xf4, 0x0e, 0xe9, 0xbe, 0x0c, 0x01, 0xf7, 0xf9, 0x23,
  0xc4, 0x31, 0xeb, 0xed, 0x17, 0x12, 0xd5, 0xec, 0xf3, 0xe9, 0x17, 0x10,
  0xdc, 0x18, 0x07, 0xea, 0xf2, 0x11, 0xb2, 0xee, 0xf9, 0xf7, 0xe3, 0x19,
  0xef, 0xfa, 0x1f, 0x13, 0xf4, 0x0f, 0xbf, 0x19, 0xec, 0x14, 0x02, 0x05,
  0xca, 0x0d, 0xe7, 0x02, 0x16, 0xff, 0xd0, 0xf4, 0x1e, 0xf5, 0xe3, 0xf5,
  0xe6, 0xfc, 0xf0, 0x0f, 0xf6, 0xec, 0xb8, 0x2b, 0x06, 0xf6, 0x1d, 0x06,
  0xe4, 0x1b, 0x16, 0x08, 0x08, 0x25, 0xce, 0xe9, 0x06, 0xfe, 0x0c, 0xf6,
  0xd3, 0x25, 0xee, 0x05, 0x02, 0x00, 0xbf, 0xfc, 0xef, 0xf7, 0xfe, 0xfa,
  0xcd, 0xe6, 0xde, 0x1c, 0x0e, 0x07, 0xa7, 0x30, 0xd5, 0xf9, 0xdd, 0x06,
  0xdd, 0x12, 0xfe, 0xfb, 0x01, 0xe9, 0xbd, 0xee, 0xe2, 0xe4, 0xf3, 0x0c,
  0x0e, 0x0a, 0xee, 0xe9, 0xfc, 0xdc, 0xee, 0x08, 0x01, 0x12, 0x05, 0xf5,
  0xfd, 0xfc, 0xdd, 0xe4, 0x0c, 0xf5, 0xf8, 0xf4, 0xe7, 0xee, 0xf4, 0x07,
  0x10, 0x07, 0xfa, 0xfd, 0x0e, 0x0a, 0x15, 0xfd, 0x01, 0xe2, 0x0e, 0xee,
  0xf3, 0xf4, 0x03, 0xfb, 0xfe, 0x20, 0xfc, 0x09, 0x1b, 0xe6, 0x00, 0x1f,
  0x12, 0xfe, 0x1c, 0xef, 0x1d, 0x09, 0x23, 0xf7, 0x0f, 0x0b, 0x0a, 0xf9,
  0xf2, 0xf7, 0xf7, 0xdf, 0x03, 0xf3, 0x12, 0xf1, 0x00, 0xf1, 0x15, 0x09,
  0xd8, 0x18, 0x04, 0x00, 0x05, 0xfc, 0xff, 0xf1, 0xf0, 0xf6, 0x14, 0x04,
  0xf6, 0x23, 0xec, 0x06, 0x17, 0x0a, 0x05, 0xf7, 0xfd, 0x00, 0xf7, 0xe1,
  0xfe, 0x25, 0x00, 0x14, 0xf3, 0xed, 0xee, 0x02, 0x23, 0xfa, 0x00, 0xf1,
  0x11, 0xf6, 0x03, 0xf6, 0xfb, 0xee, 0x0f, 0x0e, 0xd6, 0xf4, 0x04, 0x15,
  0xbc, 0xf3, 0x00, 0x01, 0xf7, 0xfb, 0xad, 0xe2, 0x01, 0x27, 0xfa, 0xf4,
  0xc6, 0xf5, 0x1c, 0xfb, 0xf6, 0xfb, 0xc9, 0xf3, 0x1e, 0xeb, 0x15, 0x28,
  0xdc, 0xf9, 0xeb, 0xf7, 0x16, 0x26, 0xbc, 0x21, 0xf1, 0xf7, 0xf7, 0xea,
  0xb9, 0x21, 0x07, 0x06, 0x04, 0x12, 0xbd, 0xfc, 0xe2, 0x03, 0x03, 0x0b,
  0xb2, 0xf6, 0x04, 0xf9, 0xdd, 0x10, 0xa7, 0x0e, 0x0f, 0x1b, 0x0e, 0x19,
  0xd9, 0x08, 0xf9, 0x28, 0x24, 0xf6, 0xc1, 0xdd, 0x01, 0xeb, 0x1e, 0xf8,
  0xc3, 0xf4, 0xee, 0x0e, 0x12, 0xf1, 0xcb, 0xdd, 0xdb, 0xe8, 0x0b, 0xe7,
  0xcb, 0x1e, 0xfd, 0x03, 0x00, 0xe7, 0xf3, 0x0f, 0xea, 0xe9, 0x0d, 0xee,
  0xbb, 0x10, 0xf1, 0x04, 0x0c, 0xeb, 0xbf, 0x14, 0xf7, 0x2a, 0xf7, 0xe8,
  0xd9, 0x01, 0xed, 0xd6, 0x0b, 0xfc, 0xad, 0x25, 0xe9, 0xfa, 0xf5, 0x09,
  0xb7, 0xed, 0xf8, 0x10, 0xe9, 0xf5, 0xe1, 0x15, 0x26, 0xf0, 0xde, 0x17,
  0xcd, 0x08, 0x10, 0x00, 0xf0, 0xf0, 0xb2, 0xe6, 0xef, 0x1b, 0x06, 0xfe,
  0xde, 0x21, 0x13, 0x05, 0x04, 0xff, 0xc1, 0x16, 0x05, 0x08, 0xea, 0x07,
  0x9d, 0xfa, 0xfc, 0xf6, 0xf1, 0xf3, 0xc5, 0xed, 0xfd, 0xe9, 0x04, 0x25,
  0xa1, 0x1b, 0x10, 0xfb, 0x20, 0x0a, 0xc9, 0x09, 0x0d, 0xe9, 0xdf, 0xef,
  0xb3, 0xff, 0xe4, 0x0a, 0x0e, 0x0c, 0xb0, 0x00, 0x0a, 0x1e, 0xfb, 0x0c,
  0xa9, 0xfa, 0x09, 0x01, 0xeb, 0xfd, 0xa2, 0x0c, 0xf7, 0x10, 0x11, 0x15,
  0xc2, 0x2a, 0xde, 0xf7, 0xf7, 0xfc, 0xc5, 0xec, 0xfb, 0xfa, 0x1b, 0x07,
  0xa6, 0xf9, 0xe1, 0x0b, 0x1b, 0xf9, 0xd0, 0xf0, 0xfc, 0x0d, 0xf0, 0xf5,
  0xaf, 0x2f, 0xdf, 0xf4, 0xe9, 0xed, 0xcd, 0x1f, 0xf8, 0x04, 0xfd, 0xe1,
  0x93, 0x0c, 0x0f, 0x0b, 0x18, 0x0a, 0x97, 0xf0, 0x13, 0xfd, 0x1f, 0xff,
  0xbd, 0x29, 0x07, 0x11, 0x0b, 0xf5, 0xb8, 0x21, 0x2a, 0xfa, 0xfc, 0x05,
  0x96, 0xf5, 0x14, 0x06, 0x0f, 0x14, 0x83, 0x24, 0x36, 0x1f, 0xe0, 0x1f,
  0xb2, 0x1c, 0x02, 0xe3, 0x22, 0x00, 0xc3, 0x07, 0xed, 0xeb, 0x01, 0xdf,
  0x81, 0xff, 0x2e, 0x18, 0x02, 0x1d, 0xab, 0x17, 0xf5, 0xf2, 0xfb, 0x21,
  0xc3, 0x05, 0x08, 0x0b, 0xe9, 0x0b, 0x97, 0x17, 0x20, 0x0f, 0xf8, 0xf1,
  0xc8, 0xf2, 0x00, 0x00, 0x06, 0xf7, 0xc0, 0xfa, 0x0f, 0xf7, 0x1b, 0x2a,
  0xbf, 0xee, 0x09, 0x13, 0xfe, 0x0b, 0xa7, 0x14, 0x29, 0xef, 0xf2, 0x04,
  0x9e, 0x0d, 0x0e, 0xff, 0xec, 0xdd, 0xbd, 0x07, 0x29, 0xf7, 0x05, 0x15,
  0xad, 0x0d, 0xee, 0xfd, 0xfc, 0xf0, 0x9a, 0x29, 0x0d, 0x20, 0xf0, 0xf2,
  0xe9, 0x04, 0x25, 0x0c, 0x04, 0xfa, 0xe5, 0xfe, 0xea, 0x0e, 0x19, 0x07,
  0x0c, 0x1e, 0x0b, 0x10, 0xf5, 0xfc, 0x11, 0xe7, 0xf1, 0x0a, 0xff, 0x04,
  0xf5, 0x01, 0x21, 0x02, 0xf7, 0x13, 0x12, 0x21, 0x10, 0x02, 0x04, 0x0e,
  0x04, 0xfa, 0xde, 0x19, 0xe1, 0xfa, 0x02, 0xe9, 0xf0, 0x18, 0x28, 0x12,
  0xde, 0x08, 0x0d, 0x00, 0xde, 0x1c, 0xe6, 0xfe, 0xea, 0xec, 0x07, 0xf2,
  0x06, 0xe6, 0x0b, 0x05, 0xe0, 0xf1, 0x0a, 0xec, 0x17, 0x01, 0xf4, 0xf8,
  0x00, 0xf8, 0x27, 0x02, 0x0c, 0xf7, 0x1a, 0xe9, 0xe2, 0xfd, 0x0c, 0x06,
  0x11, 0xfb, 0x01, 0x12, 0xf0, 0xee, 0x17, 0x1a, 0xf8, 0xe5, 0x00, 0x12,
  0xfc, 0x0f, 0xee, 0x09, 0xfc, 0x0c, 0xef, 0x0f, 0xdc, 0xff, 0xeb, 0x14,
  0x12, 0x08, 0x05, 0xf5, 0x1e, 0xec, 0x0a, 0x05, 0x03, 0xda, 0x17, 0xf3,
  0xe8, 0x1f, 0xd7, 0x0c, 0xe8, 0x04, 0xd3, 0xf3, 0x1d, 0x02, 0x02, 0xe9,
  0xe5, 0x01, 0xff, 0xe9, 0x17, 0x04, 0xe1, 0x0b, 0xfd, 0x04, 0xf4, 0xf9,
  0xca, 0xfc, 0xfc, 0x0d, 0x0f, 0x09, 0xb6, 0x0b, 0xe2, 0xe8, 0x0b, 0x0c,
  0xaa, 0x25, 0x17, 0x06, 0x18, 0x01, 0xe5, 0x0a, 0xfc, 0xe5, 0x15, 0xff,
  0xda, 0x0a, 0xf0, 0xe7, 0x0d, 0x19, 0xca, 0x1d, 0xfb, 0x0d, 0xff, 0x23,
  0xea, 0x0f, 0x06, 0x0b, 0xe8, 0x12, 0xeb, 0x22, 0xf8, 0x03, 0xee, 0x07,
  0xd1, 0x1d, 0xde, 0x05, 0x01, 0xf4, 0xd1, 0xf7, 0xe5, 0xff, 0xf1, 0x0f,
  0xe6, 0x12, 0xfb, 0x02, 0x06, 0xfc, 0xd6, 0xf1, 0xfd, 0x0a, 0x05, 0x17,
  0xdc, 0xec, 0xfa, 0xf5, 0xf6, 0xf4, 0xd5, 0x13, 0x09, 0x1e, 0x15, 0xfb,
  0xc8, 0x11, 0x0a, 0x15, 0x1c, 0x09, 0xc6, 0x19, 0x03, 0x20, 0x1e, 0x12,
  0xd9, 0x08, 0xea, 0x14, 0x04, 0xf9, 0x04, 0x07, 0x0a, 0xef, 0xd6, 0xf6,
  0x08, 0x04, 0xdd, 0xea, 0xf2, 0xf6, 0x03, 0x01, 0xfe, 0xe4, 0x06, 0xe9,
  0xf7, 0xeb, 0xed, 0x23, 0x09, 0x00, 0x08, 0xe4, 0x1f, 0xe1, 0xfb, 0xde,
  0x01, 0x1b, 0xe5, 0xf7, 0xfe, 0xe5, 0xde, 0x00, 0x02, 0x13, 0x19, 0x04,
  0xe6, 0x0b, 0x17, 0x09, 0x12, 0xe8, 0x01, 0xf8, 0x14, 0x0a, 0xf1, 0xfb,
  0x00, 0xf2, 0xed, 0x02, 0xfd, 0xf8, 0xff, 0x27, 0x08, 0xf2, 0x08, 0xf0,
  0xef, 0x09, 0xed, 0x1c, 0xe7, 0x1b, 0xfe, 0xfa, 0xf3, 0xfb, 0x1f, 0x21,
  0xf9, 0x06, 0xfb, 0xf8, 0x02, 0xd7, 0xf8, 0x02, 0xf5, 0x11, 0x00, 0x1b,
  0xf9, 0xf8, 0xe0, 0xe2, 0x03, 0x12, 0x01, 0x25, 0x12, 0x0b, 0xe9, 0xf0,
  0x07, 0xe1, 0xe7, 0xe6, 0x29, 0x0e, 0x10, 0x0a, 0xef, 0x07, 0x04, 0xf7,
  0x26, 0xdf, 0xed, 0x06, 0x09, 0xf4, 0xfd, 0x01, 0x22, 0x2b, 0x05, 0x12,
  0xf5, 0xee, 0x02, 0x04, 0x28, 0xdf, 0xd7, 0xfc, 0x0e, 0x11, 0x12, 0xdc,
  0x0a, 0xdc, 0x39, 0xe9, 0x17, 0x04, 0xf3, 0xf6, 0xf7, 0x09, 0x07, 0xfe,
  0x10, 0x0c, 0x24, 0xff, 0x29, 0x01, 0xfe, 0x03, 0x20, 0x1e, 0xf6, 0x0b,
  0xe6, 0xf7, 0xf0, 0xe4, 0x23, 0x0f, 0x29, 0x07, 0x0d, 0x09, 0xf7, 0x09,
  0xfb, 0x04, 0x38, 0xfc, 0xfc, 0x04, 0x16, 0xed, 0xef, 0x0b, 0x1e, 0xfa,
  0xfc, 0xed, 0x1a, 0x10, 0x02, 0x10, 0x07, 0xf5, 0x31, 0x06, 0xf3, 0xe1,
  0x0a, 0xf5, 0x2f, 0x1d, 0x15, 0x10, 0x07, 0xea, 0x2c, 0x0c, 0xe9, 0x0f,
  0xfc, 0x02, 0xf5, 0x20, 0x09, 0x10, 0xf3, 0xe2, 0x01, 0xec, 0x01, 0x1f,
  0x0e, 0x0c, 0x29, 0x0f, 0xe1, 0xe3, 0x00, 0xea, 0x23, 0x02, 0x04, 0x0e,
  0x3d, 0x0e, 0x29, 0x13, 0x07, 0x06, 0x1b, 0xec, 0x0c, 0xfd, 0xf6, 0x18,
  0x17, 0xe3, 0xfa, 0xe6, 0xf9, 0x13, 0x36, 0x12, 0x42, 0x19, 0xf2, 0x0a,
  0x39, 0x03, 0x1f, 0xec, 0xfe, 0xe9, 0x16, 0x05, 0x07, 0x08, 0xec, 0xe8,
  0x1a, 0x05, 0x06, 0xff, 0x1f, 0x00, 0x2b, 0xf8, 0x21, 0xf3, 0x06, 0x1e,
  0x1a, 0xec, 0x29, 0x01, 0xf9, 0xfa, 0x04, 0xfa, 0x1a, 0xf2, 0x04, 0x10,
  0x2f, 0xed, 0xf5, 0xe9, 0x10, 0xf3, 0x44, 0xfb, 0x37, 0xe1, 0x17, 0x1a,
  0x1c, 0xfb, 0x2e, 0xed, 0xfd, 0x00, 0x21, 0x11, 0x17, 0xfa, 0xf1, 0xee,
  0x2a, 0x19, 0x03, 0xf1, 0x12, 0xe5, 0x14, 0xfd, 0xfe, 0xff, 0x1a, 0x22,
  0x10, 0x04, 0x1c, 0x07, 0x22, 0xf4, 0x24, 0xee, 0x0c, 0xfa, 0xeb, 0xed,
  0x23, 0xed, 0x0d, 0xf2, 0x16, 0x19, 0x49, 0xec, 0x0c, 0x06, 0xdc, 0xe3,
  0x11, 0xfa, 0x01, 0xe5, 0x19, 0x03, 0x0a, 0xff, 0xe7, 0x08, 0xe5, 0x06,
  0x0a, 0xe6, 0xf9, 0xf9, 0x09, 0xef, 0xed, 0x04, 0xef, 0xf7, 0x2a, 0x1c,
  0xdb, 0xf4, 0xfd, 0x22, 0x06, 0x0e, 0x02, 0xfb, 0x10, 0xf3, 0xfe, 0x1e,
  0x12, 0xf9, 0xeb, 0x08, 0xe3, 0xeb, 0x03, 0xfc, 0x10, 0x19, 0xea, 0xf8,
  0xef, 0xe5, 0xef, 0xfc, 0xff, 0x09, 0x08, 0xf8, 0x1d, 0x12, 0x1d, 0xec,
  0x10, 0xe5, 0xfb, 0xfe, 0x09, 0x02, 0x0d, 0x12, 0xe4, 0x0d, 0x00, 0xfa,
  0xdf, 0xfd, 0x08, 0xf1, 0x07, 0x19, 0x1e, 0xe6, 0xfc, 0x24, 0xd8, 0xf2,
  0x05, 0x02, 0x02, 0x0e, 0x0a, 0x20, 0xff, 0x08, 0x0c, 0xf9, 0x03, 0x09,
  0xea, 0x05, 0xdb, 0xe9, 0xe7, 0x13, 0x13, 0xf1, 0xea, 0xe9, 0x1f, 0x27,
  0x00, 0x02, 0x0a, 0xfb, 0xfc, 0xf2, 0x17, 0x0c, 0x05, 0x0e, 0xea, 0x01,
  0xe5, 0xf9, 0x13, 0xfb, 0x07, 0xff, 0xcb, 0x04, 0xdb, 0xe1, 0xfa, 0xf1,
  0xdc, 0x07, 0xe6, 0xf1, 0xf1, 0xeb, 0xe2, 0xf0, 0x06, 0x0b, 0x11, 0xea,
  0xe6, 0x1c, 0xf4, 0x03, 0x04, 0xff, 0xe7, 0x0a, 0x12, 0x0a, 0xf2, 0x00,
  0xdb, 0x0f, 0xf3, 0x0f, 0x01, 0x0e, 0xe1, 0x08, 0xea, 0xde, 0x00, 0x04,
  0xc5, 0xf7, 0xff, 0xd9, 0x0c, 0x09, 0xdd, 0x15, 0xef, 0xdd, 0x28, 0xfd,
  0xe2, 0x2a, 0x0f, 0x15, 0xfb, 0xe8, 0xf5, 0xe7, 0x18, 0xf6, 0x00, 0xea,
  0xd3, 0x0a, 0xfa, 0xfd, 0xf1, 0xfc, 0xe4, 0x16, 0xf5, 0x13, 0x07, 0x1e,
  0xf7, 0xf9, 0x0b, 0x1b, 0xe2, 0x0c, 0xc3, 0xf7, 0xe7, 0x01, 0xe6, 0x0e,
  0xef, 0x21, 0x0b, 0xfd, 0xfc, 0xed, 0xec, 0x03, 0xd9, 0xf5, 0xda, 0x05,
  0xe7, 0x0f, 0xdf, 0xeb, 0xe5, 0x03, 0xd4, 0x0f, 0xfd, 0x0b, 0x1c, 0x1b,
  0xbb, 0xff, 0xe2, 0x18, 0xd7, 0xe9, 0xb3, 0xfa, 0x09, 0xf1, 0x15, 0xf9,
  0xae, 0xf6, 0x25, 0xed, 0x0d, 0xef, 0xb7, 0x0a, 0x12, 0x01, 0x15, 0x1a,
  0xdc, 0x00, 0x1a, 0xf9, 0xec, 0xf4, 0xd5, 0x16, 0x0d, 0xf8, 0x06, 0xe6,
  0xdb, 0xfd, 0xff, 0x1a, 0x07, 0xdc, 0xcc, 0x1d, 0xe7, 0xf7, 0x09, 0x05,
  0xd1, 0xfa, 0xf4, 0x1f, 0x01, 0x15, 0xb9, 0xfd, 0x13, 0xe8, 0xf5, 0x04,
  0xc4, 0x01, 0x06, 0x03, 0xf2, 0xe6, 0xc2, 0x24, 0x04, 0xfe, 0xfd, 0x09,
  0xd5, 0x2f, 0x25, 0x0e, 0x08, 0x12, 0xc4, 0x18, 0xf5, 0xf0, 0xe2, 0xd8,
  0xd0, 0x2b, 0xfa, 0x01, 0x02, 0xfe, 0xae, 0xfa, 0x0e, 0x14, 0x06, 0x1e,
  0xc8, 0xff, 0xf0, 0xfa, 0xf7, 0xeb, 0xca, 0xfc, 0x0d, 0x08, 0x1a, 0x05,
  0x9d, 0x20, 0xf6, 0xe3, 0xe0, 0x09, 0xc2, 0x06, 0xff, 0xfa, 0x0c, 0xed,
  0x08, 0xe9, 0x33, 0x1a, 0xe5, 0x07, 0x2c, 0x01, 0x19, 0x14, 0x1c, 0xff,
  0x20, 0xeb, 0x3d, 0x0e, 0xf2, 0xf2, 0x40, 0x08, 0x24, 0xf9, 0x0d, 0x11,
  0x2e, 0xf6, 0x29, 0xf2, 0xe9, 0xf8, 0x17, 0x18, 0x18, 0x07, 0xff, 0x0a,
  0x10, 0x08, 0x1a, 0x03, 0xf6, 0xff, 0x2d, 0x23, 0x1d, 0x08, 0x01, 0xf0,
  0x34, 0x04, 0x29, 0x0f, 0x08, 0x09, 0x26, 0x01, 0x1a, 0xec, 0xf0, 0x1c,
  0x19, 0x1e, 0x29, 0xfd, 0xe6, 0x1f, 0x31, 0x11, 0x0e, 0xfd, 0x0e, 0x0f,
  0x1b, 0xf6, 0x23, 0xef, 0x08, 0x14, 0x2d, 0x15, 0x2e, 0xfd, 0x12, 0x03,
  0x10, 0x0a, 0x2d, 0x06, 0xfd, 0x00, 0x34, 0xeb, 0x27, 0x04, 0x13, 0x01,
  0x33, 0xee, 0x29, 0x0b, 0xf7, 0x13, 0x1a, 0xe8, 0x44, 0xee, 0x1d, 0x0e,
  0x25, 0xdf, 0x26, 0xef, 0x02, 0xeb, 0x25, 0xd2, 0x0f, 0xfa, 0xff, 0x19,
  0x06, 0x23, 0xf3, 0xf4, 0x24, 0x10, 0xeb, 0x0c, 0xfe, 0x00, 0x04, 0xf6,
  0xe7, 0xe8, 0xf6, 0xe7, 0x0d, 0xf5, 0xf5, 0x16, 0xef, 0xfd, 0x10, 0x07,
  0xe0, 0x05, 0x0a, 0x07, 0xfb, 0x0b, 0xd1, 0x19, 0x21, 0x0b, 0x08, 0xfe,
  0xe5, 0x10, 0xdf, 0x11, 0x17, 0xff, 0xcc, 0xf9, 0x00, 0x0b, 0x23, 0x03,
  0xfe, 0xef, 0x16, 0x29, 0xf8, 0x08, 0x0c, 0xf5, 0xff, 0xe4, 0xfe, 0x15,
  0x02, 0x07, 0xf9, 0xf0, 0x00, 0x04, 0xdc, 0x06, 0x12, 0x10, 0x04, 0xf3,
  0xcf, 0x12, 0x02, 0x01, 0xf2, 0x03, 0xef, 0xf6, 0xf6, 0xff, 0x00, 0x05,
  0x03, 0x0b, 0xec, 0xd6, 0x0b, 0xf3, 0xc7, 0xfe, 0x09, 0xe3, 0xf4, 0xe7,
  0xe5, 0x22, 0x1b, 0xf6, 0x1c, 0xff, 0xc3, 0x06, 0x1b, 0xe8, 0xef, 0x21,
  0xc3, 0xef, 0xf6, 0xfc, 0xfe, 0x1f, 0xe1, 0x08, 0xe5, 0xea, 0x11, 0xd5,
  0xe4, 0x0a, 0x1e, 0x1c, 0x02, 0x26, 0x04, 0xeb, 0x13, 0xfe, 0xec, 0xf2,
  0xe3, 0x1b, 0xf0, 0x02, 0xf7, 0xe4, 0x0c, 0x01, 0x13, 0x0b, 0x17, 0x0f,
  0xf9, 0xe8, 0x01, 0xf4, 0x1f, 0xed, 0xe6, 0xe7, 0xdf, 0xec, 0x24, 0xe4,
  0x05, 0x18, 0xe5, 0x05, 0x11, 0xf0, 0xfa, 0x15, 0xf9, 0xec, 0x27, 0x13,
  0x18, 0x0a, 0xd8, 0x0b, 0xf6, 0xf0, 0xe9, 0x15, 0xee, 0xe8, 0x0b, 0x13,
  0x20, 0x24, 0xf5, 0x03, 0x0b, 0xf3, 0xf4, 0xfa, 0x18, 0xf2, 0x2a, 0x14,
  0x24, 0x16, 0x0e, 0x11, 0x03, 0x04, 0x03, 0xf3, 0xf8, 0x13, 0xfb, 0xf5,
  0x08, 0x04, 0x08, 0xec, 0xe5, 0x15, 0xfc, 0x13, 0x04, 0x01, 0x0e, 0x0a,
  0xf7, 0x04, 0x03, 0xdc, 0xfb, 0xf0, 0x04, 0x00, 0x0b, 0xf8, 0x09, 0xf9,
  0x15, 0x22, 0x12, 0xf3, 0x0a, 0x15, 0xea, 0xe8, 0x05, 0xe1, 0x0b, 0x13,
  0xfb, 0xe7, 0xea, 0xf1, 0x1f, 0x1c, 0xf6, 0x25, 0x17, 0x17, 0x1e, 0x11,
  0x12, 0x10, 0xf0, 0x25, 0x1f, 0xea, 0x01, 0xf5, 0xe7, 0xfa, 0x14, 0xe4,
  0xfd, 0x0a, 0xf0, 0xf1, 0x0c, 0x1c, 0xe7, 0xfd, 0xe2, 0x06, 0x01, 0xf3,
  0x0a, 0xf3, 0x1d, 0xf5, 0xd9, 0xfc, 0x00, 0xf5, 0xed, 0xf8, 0x05, 0xef,
  0xd7, 0xfe, 0xe2, 0x23, 0x0c, 0xda, 0xe6, 0x19, 0xfe, 0xe3, 0xfc, 0xe0,
  0xf2, 0x0a, 0x0a, 0xf3, 0x11, 0xff, 0x11, 0xfa, 0xe3, 0xda, 0xe5, 0xfc,
  0x0d, 0x20, 0xfb, 0x00, 0x04, 0xf1, 0x13, 0xf4, 0x1b, 0xf1, 0xfd, 0x1f,
  0xfc, 0x26, 0x0c, 0x04, 0xe6, 0x02, 0xe5, 0xf3, 0x09, 0xff, 0xf4, 0x06,
  0xe9, 0x0c, 0xea, 0xfd, 0x02, 0xe7, 0xf7, 0xec, 0xe6, 0xfc, 0x09, 0x03,
  0xf3, 0x0a, 0x04, 0xef, 0xd9, 0xfc, 0x23, 0x09, 0xec, 0xed, 0xfc, 0xf8,
  0x43, 0xfc, 0x12, 0xfa, 0x1a, 0xe1, 0x1e, 0x0a, 0x1c, 0xf5, 0xf3, 0xf0,
  0x1d, 0xfd, 0x3a, 0x23, 0xe5, 0x06, 0x31, 0xe6, 0xf3, 0x11, 0x23, 0x08,
  0x19, 0x0b, 0x21, 0xf1, 0x05, 0xf7, 0x33, 0xee, 0x15, 0x0a, 0x22, 0xe8,
  0x27, 0x0b, 0x19, 0xfb, 0xef, 0xe9, 0x31, 0xe3, 0x17, 0xe5, 0xfa, 0xf9,
  0x4a, 0x1e, 0x25, 0x15, 0xfb, 0xea, 0x2f, 0xf0, 0x26, 0x0f, 0xd8, 0x19,
  0x19, 0x02, 0x36, 0xdf, 0xde, 0x00, 0xff, 0xf5, 0x14, 0x0f, 0xeb, 0xeb,
  0x44, 0x01, 0x25, 0xff, 0x07, 0x11, 0x2a, 0xec, 0xf3, 0x1d, 0xfe, 0xf4,
  0x1e, 0xd8, 0x15, 0x0c, 0x15, 0x12, 0x1f, 0x09, 0x18, 0xe8, 0xe6, 0x0a,
  0x24, 0x0f, 0x14, 0x0e, 0xfc, 0xeb, 0x3e, 0x0b, 0x21, 0xeb, 0xf5, 0x0b,
  0x37, 0x01, 0x1c, 0xf9, 0x02, 0x26, 0x27, 0xfb, 0x28, 0x14, 0xfa, 0x04,
  0x0a, 0x0a, 0xf5, 0x20, 0x19, 0x04, 0xf0, 0xf2, 0xe1, 0xfe, 0x09, 0xfb,
  0x1f, 0xf5, 0xff, 0xee, 0x00, 0xfb, 0x0e, 0xfa, 0xfb, 0x06, 0x19, 0xf5,
  0xfa, 0xf3, 0xfc, 0x04, 0x20, 0x01, 0xf7, 0xf9, 0xff, 0x05, 0x20, 0xef,
  0xe7, 0xf0, 0xf8, 0xf8, 0xf0, 0xff, 0xf4, 0x1b, 0xf5, 0xff, 0xee, 0xeb,
  0x0f, 0xee, 0xfe, 0x06, 0x22, 0xfa, 0xfc, 0x23, 0x0e, 0x21, 0xe7, 0xf5,
  0xfb, 0x0a, 0x02, 0x2a, 0x17, 0x19, 0xf8, 0xfb, 0xf7, 0xf1, 0xfe, 0x04,
  0xff, 0xfa, 0xf8, 0xef, 0x18, 0x12, 0x13, 0xf4, 0xeb, 0x1e, 0xf1, 0x09,
  0xfe, 0xeb, 0x07, 0x0a, 0x07, 0x19, 0x03, 0xf5, 0xed, 0x08, 0x20, 0xf5,
  0x04, 0x12, 0xec, 0x14, 0xe6, 0x0a, 0xda, 0x11, 0x0f, 0xec, 0x04, 0x03,
  0x07, 0xf1, 0xf0, 0x0e, 0xfd, 0xeb, 0xfb, 0xf2, 0xdf, 0xf2, 0x0a, 0xf2,
  0x1b, 0xfd, 0xe4, 0xee, 0xe4, 0x06, 0x0d, 0x06, 0x04, 0xed, 0xeb, 0x08,
  0xee, 0x05, 0xf2, 0xee, 0x08, 0xf8, 0xe1, 0x0e, 0x0b, 0x04, 0x15, 0xed,
  0xfb, 0xfd, 0xf0, 0x0b, 0xff, 0xe5, 0x04, 0x04, 0xeb, 0x1f, 0xf0, 0x17,
  0xf7, 0xfa, 0x0b, 0xf8, 0xf9, 0x02, 0xf2, 0x0a, 0xfb, 0x13, 0xe0, 0x0b,
  0x1d, 0x17, 0x08, 0x1b, 0xfa, 0xf1, 0x00, 0x09, 0xf4, 0xfb, 0xfb, 0xe6,
  0x2a, 0xfb, 0xeb, 0xf6, 0x1e, 0x08, 0x24, 0xed, 0xf4, 0x02, 0x13, 0x0c,
  0xec, 0xe5, 0x12, 0xe0, 0x13, 0x1d, 0x1a, 0x06, 0xf5, 0xff, 0xf9, 0xfc,
  0x01, 0xd8, 0x0b, 0x03, 0xf7, 0xe0, 0x15, 0x1c, 0x07, 0x0e, 0xf8, 0x1a,
  0x00, 0x07, 0x08, 0xdc, 0xe7, 0x19, 0x0f, 0x0a, 0xfe, 0x1c, 0x00, 0x02,
  0x01, 0x11, 0x2b, 0x12, 0xf3, 0xfa, 0x01, 0x10, 0xde, 0x02, 0x18, 0xfe,
  0x09, 0x27, 0x16, 0x20, 0xfd, 0x07, 0xe9, 0x08, 0x16, 0x1e, 0xf1, 0xfc,
  0x06, 0x07, 0xec, 0x10, 0x02, 0x04, 0x09, 0x2b, 0x0b, 0xfa, 0xf3, 0xee,
  0xff, 0x0b, 0x11, 0x11, 0xef, 0xf9, 0x15, 0xdf, 0xe8, 0xec, 0x09, 0xda,
  0x12, 0x03, 0xfc, 0xed, 0xf5, 0xf1, 0xec, 0xfd, 0xfa, 0xdd, 0x22, 0x09,
  0xe2, 0x07, 0xdc, 0xe5, 0x2a, 0xf4, 0xfa, 0x06, 0xf4, 0xd6, 0xe3, 0x1d,
  0x04, 0xf7, 0xf1, 0x12, 0x03, 0xf1, 0xd5, 0x17, 0x18, 0xf9, 0xe4, 0x15,
  0x11, 0xf7, 0xff, 0xf2, 0xfb, 0xfd, 0x04, 0xf3, 0x0f, 0x05, 0x26, 0xef,
  0x19, 0xf8, 0x15, 0xf8, 0x03, 0x11, 0x10, 0x1d, 0xe2, 0x01, 0x1a, 0x27,
  0x0c, 0xf8, 0x03, 0xe1, 0xd6, 0xdc, 0xee, 0xfb, 0xf7, 0xde, 0xe9, 0x01,
  0x0f, 0xfe, 0xea, 0x0f, 0xff, 0xe2, 0xea, 0xed, 0x02, 0x12, 0x11, 0x14,
  0x04, 0xf9, 0x16, 0xfa, 0x1e, 0xff, 0xe6, 0x08, 0xfd, 0xe9, 0x16, 0xfa,
  0x16, 0xfb, 0xed, 0x11, 0x14, 0xf5, 0xe5, 0xf4, 0x0d, 0xf2, 0x1b, 0xd6,
  0x1c, 0x17, 0xe6, 0x0e, 0xf7, 0x16, 0xf8, 0xfb, 0x09, 0x19, 0x18, 0x0c,
  0xed, 0xf9, 0x24, 0x09, 0x17, 0xdb, 0x1e, 0xe5, 0x12, 0xe8, 0xf5, 0x07,
  0xfa, 0xf8, 0x00, 0xf4, 0x08, 0xf3, 0xf7, 0x09, 0xe9, 0x15, 0xec, 0xec,
  0x03, 0x04, 0x08, 0x01, 0xf1, 0x0c, 0xef, 0xef, 0xe0, 0xe7, 0xdb, 0xf6,
  0xf7, 0x12, 0xfe, 0x26, 0x0b, 0x18, 0xeb, 0xff, 0xeb, 0xff, 0xff, 0x14,
  0x0c, 0x00, 0x0b, 0x03, 0xfb, 0xf6, 0xf2, 0xdf, 0x12, 0xf0, 0xe3, 0xf9,
  0xef, 0x03, 0xf5, 0x16, 0x1f, 0x07, 0xf9, 0x07, 0xd6, 0xe8, 0xf5, 0xfe,
  0x11, 0xf2, 0x04, 0x11, 0xfc, 0xf4, 0x0d, 0x10, 0x02, 0x0a, 0xdd, 0xff,
  0xe4, 0xf9, 0x14, 0x08, 0x05, 0xfc, 0x02, 0xfd, 0xf8, 0xf0, 0x04, 0x27,
  0x1d, 0xf0, 0xf4, 0xfb, 0xff, 0xef, 0xf6, 0xed, 0x0a, 0xf9, 0x19, 0x02,
  0x28, 0x07, 0xe6, 0x0c, 0x25, 0xfa, 0xf4, 0xf3, 0x0b, 0x13, 0x18, 0x06,
  0xd7, 0xe7, 0xfb, 0x0d, 0x09, 0x20, 0xdc, 0xe2, 0xfd, 0x00, 0x08, 0x04,
  0xf6, 0x0c, 0x0a, 0x0b, 0xdc, 0x02, 0x0e, 0xfc, 0x0e, 0xe3, 0xf0, 0xef,
  0x19, 0xe9, 0xf2, 0xf8, 0xdd, 0xf6, 0xef, 0x02, 0xf1, 0x21, 0xf7, 0x08,
  0x15, 0xf9, 0x05, 0x1b, 0x04, 0xf2, 0xf8, 0x14, 0xfd, 0x25, 0x0b, 0x06,
  0x00, 0x25, 0xf8, 0xee, 0xfc, 0xfb, 0x1e, 0xf0, 0x03, 0x18, 0xdd, 0xf6,
  0x04, 0x00, 0xf8, 0xfb, 0x11, 0xfa, 0x14, 0x02, 0xef, 0xfe, 0x03, 0x05,
  0x02, 0x17, 0x15, 0x0e, 0x0e, 0xf0, 0x00, 0xfc, 0x00, 0xfb, 0x12, 0x0d,
  0xf8, 0xf2, 0x07, 0x0e, 0x18, 0x1b, 0x18, 0x10, 0xef, 0x05, 0xec, 0xf3,
  0x08, 0xe3, 0xf0, 0xeb, 0xef, 0x06, 0x04, 0x1a, 0xee, 0x0e, 0xe8, 0x03,
  0x09, 0xea, 0x1f, 0xf2, 0x14, 0x0c, 0x00, 0x18, 0x0c, 0xf6, 0x10, 0xea,
  0xee, 0xfc, 0x08, 0xe7, 0x0e, 0xf7, 0xfa, 0xdd, 0x01, 0x08, 0xe5, 0xfb,
  0x02, 0x01, 0xe7, 0xf3, 0xf0, 0xff, 0xff, 0xf6, 0xe6, 0xf5, 0x00, 0x18,
  0x0e, 0x16, 0x01, 0x05, 0xeb, 0x08, 0x27, 0xe6, 0x0d, 0x07, 0xe3, 0xeb,
  0xfa, 0xfb, 0xdd, 0xeb, 0x09, 0xdf, 0x0a, 0xf0, 0x0b, 0xfc, 0x29, 0x0d,
  0x0a, 0xf9, 0xe1, 0xe1, 0x0e, 0xf5, 0xdf, 0x26, 0xfe, 0xfc, 0x04, 0xda,
  0x0d, 0x0d, 0xeb, 0x11, 0x06, 0xe7, 0xe8, 0x02, 0xde, 0xfd, 0x0a, 0x1f,
  0xf8, 0xf3, 0x22, 0xe9, 0xff, 0xf0, 0xf7, 0x0f, 0x14, 0x08, 0x0f, 0xf2,
  0x41, 0xe4, 0x12, 0x13, 0x17, 0xfe, 0x5e, 0xe4, 0x1a, 0x18, 0xf1, 0x13,
  0x4e, 0xf4, 0x01, 0xd7, 0x01, 0x12, 0x1f, 0xf9, 0x14, 0x07, 0x0a, 0x05,
  0x46, 0xe3, 0xf7, 0x26, 0x05, 0x01, 0x3f, 0x05, 0x3f, 0x08, 0x00, 0xed,
  0x52, 0xfc, 0x26, 0x1b, 0xe2, 0x06, 0x53, 0xdd, 0x1f, 0x0c, 0x0e, 0xee,
  0x31, 0x00, 0x00, 0x03, 0x16, 0xe4, 0x1e, 0xed, 0x10, 0x13, 0x07, 0x1c,
  0x5d, 0xd7, 0x32, 0xe1, 0xf1, 0xf8, 0x5a, 0xe3, 0x11, 0x00, 0x0b, 0x0b,
  0x5a, 0xef, 0x33, 0xf4, 0xf3, 0x05, 0x68, 0xfc, 0x03, 0xfe, 0x15, 0xf3,
  0x4d, 0xed, 0x3d, 0x21, 0xe4, 0xf3, 0x4d, 0xed, 0x20, 0x0f, 0x01, 0xf0,
  0x48, 0xf5, 0x1f, 0x01, 0xee, 0xfc, 0x20, 0xe9, 0x2d, 0x1a, 0xd8, 0x0e,
  0x51, 0xff, 0x06, 0xf4, 0x04, 0x16, 0x48, 0xf5, 0x12, 0x0f, 0xd8, 0xf2,
  0x03, 0xe6, 0xf7, 0x00, 0xfb, 0xf7, 0xf6, 0x25, 0x06, 0xec, 0x02, 0x0a,
  0x03, 0xec, 0xdd, 0xea, 0xec, 0x26, 0xe4, 0xf5, 0x01, 0xfa, 0xf4, 0xf4,
  0x10, 0x11, 0xf6, 0x0a, 0xf4, 0x1a, 0x1b, 0xf8, 0xf2, 0x00, 0xfc, 0xfb,
  0x11, 0xf2, 0x0f, 0x21, 0xea, 0xf4, 0xf4, 0x10, 0xfa, 0x01, 0x26, 0x12,
  0xdf, 0xe3, 0x16, 0x0b, 0xf1, 0xeb, 0xf1, 0x01, 0xf4, 0x15, 0x24, 0x10,
  0xfd, 0x0e, 0xe1, 0xf8, 0x22, 0xfa, 0x01, 0xf0, 0xfd, 0xe8, 0x03, 0x00,
  0xfe, 0xf3, 0x02, 0x07, 0xfa, 0xe8, 0x23, 0x24, 0x07, 0xf8, 0x0c, 0x0c,
  0x07, 0xf5, 0xf5, 0xf8, 0xf4, 0xe1, 0x0e, 0xeb, 0xfa, 0x0d, 0xdd, 0xf0,
  0xf7, 0xf6, 0xe6, 0xf8, 0x08, 0x04, 0x15, 0xfe, 0xf8, 0xf9, 0xf7, 0xf4,
  0xdc, 0xf1, 0x19, 0xf3, 0xef, 0xf7, 0xd7, 0x14, 0xf7, 0xfd, 0xfe, 0xee,
  0xdb, 0xe9, 0x0e, 0x1e, 0x12, 0xff, 0x0f, 0x0f, 0x08, 0x04, 0xff, 0x12,
  0xf5, 0xe6, 0x30, 0x00, 0x08, 0x15, 0x14, 0xe2, 0x04, 0xec, 0xe2, 0x00,
  0xfb, 0x0f, 0x03, 0x17, 0x00, 0x2b, 0x13, 0xdd, 0x1b, 0x1f, 0xe6, 0xf2,
  0x03, 0x26, 0x14, 0x08, 0x07, 0x18, 0x01, 0x03, 0xfb, 0xdc, 0x1c, 0xe0,
  0x0c, 0xfb, 0x09, 0x2b, 0xf3, 0xf2, 0x18, 0x1b, 0x1b, 0xf2, 0x24, 0x11,
  0xfd, 0xe8, 0x0d, 0x19, 0xe9, 0x16, 0xec, 0xea, 0x13, 0x03, 0x04, 0xd8,
  0x0c, 0x05, 0x02, 0xde, 0x04, 0xef, 0x0e, 0xe3, 0x10, 0xdd, 0xe6, 0xf2,
  0x25, 0x04, 0x1b, 0x25, 0xf2, 0x0c, 0x10, 0xe7, 0xdf, 0x25, 0xda, 0x2b,
  0xe4, 0x0e, 0xfe, 0x13, 0x0a, 0x11, 0x27, 0xdd, 0xf4, 0xf7, 0xf7, 0xf8,
  0x01, 0xf9, 0x1e, 0x04, 0x06, 0xee, 0x16, 0x01, 0x26, 0x0d, 0x15, 0xf5,
  0x18, 0x02, 0x32, 0x17, 0x0a, 0x1d, 0x46, 0xf1, 0x37, 0x05, 0x0f, 0xf3,
  0x2e, 0xd3, 0x00, 0x1d, 0x0b, 0x10, 0x44, 0x02, 0x16, 0xf7, 0xf2, 0x0e,
  0x4c, 0xe9, 0xf9, 0x21, 0x14, 0xf9, 0x22, 0xfa, 0x36, 0x13, 0xe8, 0xed,
  0x15, 0xdd, 0x0c, 0xff, 0x0a, 0xf5, 0x4f, 0xdb, 0x32, 0x0b, 0x16, 0x05,
  0x4a, 0xfa, 0x0d, 0x08, 0x0c, 0xf3, 0x33, 0xfa, 0x26, 0xe3, 0xf8, 0x29,
  0x2e, 0x00, 0xfa, 0xff, 0x29, 0x04, 0x42, 0xed, 0x12, 0x0d, 0x24, 0xf8,
  0x1f, 0xe0, 0x1f, 0x17, 0xf2, 0xda, 0x33, 0xf0, 0x11, 0x0f, 0x21, 0x17,
  0x2d, 0x08, 0x10, 0x00, 0xe4, 0x11, 0x1f, 0xf9, 0x1b, 0xfc, 0x0f, 0xfc,
  0x2c, 0xde, 0x20, 0x09, 0x15, 0x0d, 0x3e, 0xfe, 0x1d, 0xfa, 0xf6, 0x12,
  0x3d, 0x0d, 0x25, 0xf8, 0xe9, 0x1b, 0x40, 0xe8, 0x0a, 0x19, 0x06, 0xfd,
  0xbe, 0x0d, 0xfc, 0xf6, 0xda, 0x00, 0xc4, 0xf8, 0xea, 0x0a, 0x02, 0xf5,
  0xb2, 0x1f, 0x2f, 0xe6, 0x06, 0x0b, 0xa3, 0x1d, 0x2f, 0xe8, 0x1a, 0x0a,
  0xcb, 0x11, 0x23, 0x04, 0xf4, 0xef, 0xc0, 0x19, 0xf5, 0xdf, 0x00, 0x0d,
  0xc3, 0xf5, 0xde, 0xd6, 0xfb, 0xfa, 0xb7, 0x09, 0x1c, 0xf5, 0x12, 0xf2,
  0xdc, 0x09, 0x07, 0xef, 0x0c, 0x02, 0xb6, 0x2f, 0xe6, 0x1b, 0xeb, 0x0e,
  0xb5, 0xfb, 0x2a, 0xf0, 0x06, 0xea, 0xd1, 0xfc, 0xff, 0x04, 0xf7, 0x18,
  0xc2, 0x0c, 0xfe, 0x00, 0x21, 0x04, 0xc0, 0x16, 0xe9, 0x00, 0xe9, 0xe7,
  0xb3, 0x2a, 0xe2, 0xee, 0x08, 0x00, 0xe6, 0x0f, 0x0b, 0x09, 0xf1, 0x17,
  0x94, 0x0b, 0x18, 0x1e, 0xfb, 0x0b, 0xce, 0x22, 0x14, 0x06, 0x10, 0x18,
  0xb4, 0x03, 0xfc, 0xef, 0xf9, 0xf4, 0xbc, 0xfd, 0x15, 0xfa, 0x21, 0xfc,
  0xe1, 0x1c, 0xff, 0x0e, 0xe1, 0xf6, 0xee, 0xfa, 0xf2, 0x07, 0x01, 0xf9,
  0xe6, 0xfe, 0xeb, 0x08, 0x01, 0x07, 0x1e, 0xf8, 0x03, 0xf7, 0x08, 0xfa,
  0xf3, 0xe9, 0xfa, 0xef, 0xe5, 0xf3, 0xf6, 0x08, 0xfb, 0x06, 0xf5, 0x04,
  0xf0, 0xec, 0xfa, 0xea, 0xdd, 0x0e, 0xee, 0x0b, 0xf8, 0x0a, 0x1b, 0x1c,
  0x1b, 0xf8, 0x1e, 0x0d, 0x01, 0xf8, 0x0b, 0x04, 0x02, 0xf2, 0x14, 0xf9,
  0x2a, 0x07, 0xee, 0x02, 0xff, 0x11, 0x0e, 0x19, 0x0d, 0x15, 0xe4, 0x03,
  0xf4, 0xea, 0xde, 0xf5, 0xeb, 0xec, 0x04, 0xee, 0xe4, 0x10, 0x29, 0xdf,
  0xf6, 0xf3, 0x16, 0x0d, 0x28, 0x11, 0x0b, 0x28, 0x12, 0xec, 0x1b, 0xfc,
  0xf2, 0x1c, 0x02, 0xfc, 0x21, 0xfa, 0x08, 0xff, 0x12, 0xe0, 0xed, 0xf0,
  0x26, 0xfa, 0xe9, 0xf5, 0xef, 0xf7, 0x06, 0x20, 0x10, 0xec, 0xfe, 0xf1,
  0x14, 0x16, 0x2d, 0xf5, 0x0e, 0x29, 0x3f, 0xe6, 0x0d, 0xf1, 0xe3, 0x17,
  0x23, 0xfa, 0x1d, 0xff, 0x06, 0x00, 0x2e, 0x1e, 0x16, 0x28, 0x0c, 0xfa,
  0x20, 0xe1, 0x3a, 0xf8, 0x09, 0xee, 0x32, 0x10, 0x28, 0xf4, 0xf6, 0x07,
  0x28, 0xf0, 0x27, 0xfa, 0x08, 0x08, 0x0e, 0x0d, 0xfe, 0x03, 0x01, 0x29,
  0x23, 0xf6, 0x11, 0x11, 0x13, 0x0a, 0x40, 0xdb, 0x37, 0x0e, 0x04, 0xe4,
  0x41, 0x02, 0x14, 0xff, 0xeb, 0x2a, 0x1a, 0x01, 0x1c, 0x02, 0xda, 0xe3,
  0x0a, 0xfb, 0x2c, 0x06, 0xe0, 0x15, 0x36, 0xec, 0x00, 0x14, 0x01, 0x0a,
  0x4c, 0xe3, 0x23, 0x01, 0x19, 0xf5, 0x0e, 0xd3, 0x07, 0xfa, 0x01, 0x12,
  0x2f, 0xe0, 0x13, 0x1c, 0x13, 0xe8, 0x24, 0xfc, 0x0c, 0x24, 0xe6, 0x17,
  0x19, 0x00, 0x04, 0x22, 0xfd, 0x0d, 0x2e, 0xfa, 0x21, 0xfd, 0x05, 0x25,
  0x0e, 0x06, 0xdf, 0x12, 0xf6, 0x16, 0xdc, 0xf3, 0xf2, 0x08, 0x10, 0xfb,
  0x19, 0xfe, 0x02, 0x15, 0x0c, 0x02, 0x12, 0x1d, 0x0a, 0x1e, 0xe5, 0x00,
  0x10, 0x12, 0xfd, 0x29, 0x0f, 0xf7, 0x15, 0x19, 0xfa, 0x01, 0x03, 0x1c,
  0xf4, 0x00, 0xf6, 0xe8, 0xfa, 0x08, 0x0c, 0xfd, 0xdc, 0x04, 0xd6, 0xf6,
  0xe9, 0xfa, 0x10, 0x25, 0xf3, 0x05, 0x12, 0x0c, 0xfe, 0x10, 0xf9, 0x06,
  0x1b, 0x00, 0x00, 0x08, 0xf1, 0xeb, 0xf6, 0x10, 0x1d, 0xfc, 0xe4, 0xf0,
  0xe8, 0x1c, 0xef, 0xd7, 0xf4, 0xe5, 0xd9, 0x1e, 0x19, 0xf0, 0xfd, 0xf8,
  0x18, 0x19, 0x00, 0xf4, 0xed, 0x03, 0xfa, 0xf9, 0xd9, 0x14, 0x14, 0xee,
  0x0b, 0xe3, 0xec, 0x06, 0x22, 0x0f, 0xd7, 0xf9, 0x0a, 0x09, 0xf9, 0xd7,
  0xf8, 0x10, 0x15, 0xf6, 0xef, 0xe6, 0x08, 0xfe, 0x08, 0xe3, 0x01, 0x10,
  0x00, 0x11, 0x14, 0x15, 0xfd, 0xf6, 0x25, 0xf1, 0x1a, 0xdc, 0xf4, 0x06,
  0x29, 0x09, 0x06, 0xfb, 0x18, 0xe3, 0x15, 0xf4, 0x28, 0x08, 0x23, 0xf1,
  0x3d, 0x0a, 0x09, 0xed, 0xdb, 0xf4, 0x34, 0x0c, 0x2e, 0xfc, 0xea, 0x0e,
  0x2a, 0x15, 0x1b, 0x1e, 0xfc, 0x0d, 0x11, 0xe1, 0x09, 0xe1, 0x20, 0xfa,
  0x1a, 0xde, 0x11, 0xe5, 0xf8, 0xe0, 0x24, 0xf2, 0x2c, 0x10, 0x12, 0x16,
  0x1d, 0x06, 0x33, 0x09, 0x12, 0x0a, 0x0e, 0xfb, 0x0e, 0x04, 0xfb, 0xea,
  0x11, 0x1e, 0x0b, 0x07, 0xf7, 0xef, 0x3c, 0xeb, 0x00, 0xff, 0x03, 0x0d,
  0x10, 0xfb, 0x0f, 0xfa, 0xfa, 0x0d, 0x23, 0xf4, 0x04, 0x1d, 0x13, 0xfe,
  0x13, 0xe9, 0x24, 0x05, 0x19, 0x02, 0x16, 0x04, 0x18, 0xfa, 0x1a, 0xe2,
  0x1b, 0xeb, 0x2b, 0x22, 0x0a, 0xfe, 0x29, 0xfd, 0x2e, 0x19, 0xf1, 0xe5,
  0x3a, 0xfb, 0xec, 0xee, 0x0b, 0xe7, 0x2e, 0x08, 0xfb, 0xe3, 0x03, 0x08,
  0x02, 0x10, 0x3f, 0x04, 0x22, 0x14, 0x13, 0x06, 0x2d, 0xf8, 0xfb, 0xfc,
  0x38, 0x08, 0x27, 0xe3, 0xdd, 0xef, 0x1a, 0xe7, 0x09, 0xec, 0x0f, 0xf5,
  0x2b, 0xf7, 0xfd, 0x10, 0xef, 0xfd, 0x21, 0x0e, 0x0a, 0x1b, 0x16, 0x1d,
  0x27, 0x16, 0x01, 0x0d, 0x0f, 0xf0, 0x17, 0x05, 0x2e, 0xe4, 0x04, 0xf6,
  0xf4, 0xfa, 0x14, 0x2a, 0xfc, 0x01, 0x2a, 0x00, 0x24, 0xff, 0xf4, 0x02,
  0x42, 0x0e, 0x22, 0x0e, 0x07, 0xf1, 0x0f, 0xf0, 0x1a, 0xef, 0x04, 0xe1,
  0x1b, 0xde, 0x24, 0xee, 0xe0, 0x0e, 0x1d, 0xe8, 0x1a, 0x0b, 0x0e, 0xeb,
  0x40, 0xfa, 0x22, 0x11, 0x23, 0x13, 0x17, 0x24, 0x3e, 0xfd, 0x04, 0xd7,
  0x04, 0x03, 0x21, 0xeb, 0xe8, 0xe5, 0x3e, 0x1b, 0x35, 0xec, 0xeb, 0x0e,
  0x02, 0x07, 0x01, 0x01, 0x06, 0x0d, 0xe1, 0xf6, 0xfd, 0xff, 0x09, 0xf3,
  0xed, 0xf3, 0x10, 0xe4, 0x20, 0xfc, 0x0a, 0x07, 0xee, 0x1a, 0x0b, 0xfd,
  0xee, 0xdf, 0xe0, 0x14, 0xdd, 0xf9, 0xf3, 0x06, 0xde, 0x13, 0x1a, 0x08,
  0xf1, 0xff, 0xda, 0x00, 0x00, 0xf1, 0xff, 0x0f, 0x1a, 0xf3, 0x0f, 0x0d,
  0xe3, 0x04, 0xe9, 0x02, 0xed, 0xe6, 0x2b, 0xfb, 0x07, 0xf8, 0xe3, 0x01,
  0x0f, 0x11, 0x0a, 0xeb, 0xf9, 0x17, 0x26, 0x0e, 0x05, 0xf4, 0xf0, 0x11,
  0x03, 0xf9, 0xe2, 0xf4, 0xf6, 0xf3, 0x1b, 0x11, 0xfb, 0x0a, 0x15, 0x28,
  0x02, 0xde, 0xfb, 0x14, 0x04, 0xeb, 0x15, 0xd9, 0x11, 0x15, 0x03, 0xf6,
  0x1c, 0x11, 0x0b, 0x05, 0x29, 0xf6, 0xfb, 0x03, 0xdb, 0xef, 0xf7, 0x1c,
  0x23, 0xf7, 0x15, 0xfd, 0xed, 0x21, 0x17, 0xf6, 0x05, 0xdc, 0x1b, 0xed,
  0xeb, 0x0c, 0xf9, 0x07, 0xfe, 0xd8, 0xf7, 0x0c, 0x03, 0x2b, 0x12, 0xec,
  0xdf, 0x16, 0xf2, 0x04, 0xfa, 0xed, 0x05, 0xfc, 0x0a, 0x20, 0x05, 0x0e,
  0xe2, 0x18, 0xea, 0xdf, 0xf4, 0x12, 0xfd, 0xfe, 0xff, 0x11, 0xe7, 0xff,
  0x0f, 0xf5, 0xfa, 0x03, 0xfb, 0x0e, 0xe6, 0x20, 0x02, 0x12, 0x0c, 0x17,
  0xe1, 0xd9, 0xe0, 0xea, 0x14, 0x0b, 0xfa, 0xe3, 0x1b, 0x0f, 0x00, 0x21,
  0xe1, 0x13, 0x0a, 0xe9, 0xf1, 0x01, 0xee, 0x01, 0x14, 0xf0, 0xea, 0x07,
  0xe2, 0xe7, 0x20, 0xe1, 0x07, 0xfa, 0xe1, 0xfa, 0x03, 0x16, 0xf3, 0xe8,
  0x0e, 0xf7, 0x1f, 0xfc, 0x03, 0xe9, 0x06, 0x00, 0xe7, 0xe8, 0xf3, 0x14,
  0xfe, 0xf0, 0x00, 0x02, 0x20, 0x05, 0xfe, 0xeb, 0xfd, 0x19, 0xf9, 0xe2,
  0xf6, 0x0c, 0xe5, 0xeb, 0xf4, 0xf4, 0xd6, 0x2a, 0xf0, 0x14, 0xed, 0xfa,
  0xfa, 0x21, 0xf1, 0x06, 0x0f, 0x0d, 0xfe, 0x20, 0xef, 0xf6, 0x0d, 0xf3,
  0x08, 0x1b, 0xe8, 0x0e, 0x01, 0x0e, 0xd3, 0xfa, 0x08, 0xfc, 0xe4, 0xea,
  0x0d, 0x1a, 0x13, 0x14, 0xe9, 0x03, 0xfc, 0x02, 0xf5, 0x04, 0xf8, 0x01,
  0xdb, 0x04, 0x0f, 0xff, 0xf5, 0x1d, 0xea, 0xfa, 0x1d, 0x09, 0xe7, 0x0f,
  0xe0, 0xe8, 0xd8, 0xfc, 0xfc, 0xf5, 0xfd, 0xf8, 0xe7, 0xec, 0x0f, 0xed,
  0xd2, 0xd6, 0xff, 0x22, 0xf8, 0x11, 0xf2, 0xf9, 0xfc, 0xf9, 0x28, 0x0b,
  0xe9, 0xe0, 0x0a, 0xf2, 0xf4, 0x00, 0xff, 0xf7, 0x17, 0x0d, 0x0a, 0x12,
  0xe9, 0xf4, 0x26, 0x13, 0x0d, 0xf3, 0x02, 0xf6, 0x06, 0x0e, 0xf3, 0xe4,
  0x10, 0x0b, 0xec, 0xfe, 0xf1, 0xdd, 0xf5, 0xf0, 0x0b, 0xfe, 0xed, 0x01,
  0xe9, 0xf1, 0xff, 0x0c, 0x01, 0x13, 0xf4, 0x04, 0x00, 0xf1, 0x16, 0x0f,
  0xe3, 0xf9, 0x07, 0x09, 0xde, 0x18, 0x02, 0x08, 0x0f, 0x0c, 0x08, 0x0a,
  0x0d, 0xfa, 0xf4, 0xda, 0x08, 0x22, 0xe1, 0xfe, 0x09, 0xfb, 0x15, 0xfe,
  0x1e, 0xfa, 0xeb, 0x13, 0xd8, 0xf0, 0x06, 0xdc, 0xdc, 0x12, 0xf7, 0x14,
  0x0c, 0x09, 0xfa, 0xfd, 0xff, 0xee, 0x07, 0x1e, 0xf0, 0xf0, 0x17, 0xeb,
  0x1c, 0xf8, 0x08, 0x0b, 0x18, 0x03, 0x07, 0x15, 0xf4, 0x22, 0x07, 0x02,
  0x1f, 0x06, 0x16, 0xdd, 0xf1, 0xfa, 0xef, 0x09, 0x0b, 0xfa, 0xec, 0xe8,
  0xff, 0xff, 0x13, 0xf8, 0x10, 0x03, 0x0d, 0x0e, 0x07, 0x03, 0x01, 0x1a,
  0xeb, 0xf7, 0x05, 0x08, 0xfc, 0xf6, 0x00, 0xf4, 0x0d, 0x05, 0x0d, 0xf2,
  0xe3, 0xff, 0x1f, 0xe6, 0xed, 0x21, 0xe8, 0xf1, 0xd8, 0x0d, 0xf1, 0xeb,
  0xf9, 0x04, 0x02, 0xed, 0x03, 0xeb, 0xe8, 0x06, 0xec, 0x00, 0x0d, 0x23,
  0xf9, 0xe8, 0x1b, 0xfa, 0x02, 0xf6, 0xf6, 0xed, 0x15, 0x28, 0xf7, 0x17,
  0xe4, 0x06, 0xfb, 0xec, 0x20, 0x27, 0x05, 0x20, 0xe3, 0x16, 0xde, 0xf0,
  0x0f, 0xf1, 0xe1, 0xfb, 0x0f, 0xed, 0xdc, 0x14, 0x09, 0x03, 0x06, 0x05,
  0xf6, 0x1b, 0xfd, 0x00, 0xf4, 0x0d, 0xdc, 0x0c, 0x1c, 0xfb, 0x00, 0xe6,
  0x08, 0xea, 0xde, 0xff, 0xea, 0x0c, 0x1a, 0xe9, 0xed, 0x05, 0xea, 0xef,
  0xf2, 0xed, 0x18, 0xfe, 0x11, 0xf2, 0x01, 0x11, 0x03, 0x0f, 0x07, 0xf7,
  0x11, 0x00, 0xec, 0xf5, 0x0a, 0xf1, 0xf8, 0x08, 0xed, 0x01, 0xfd, 0xeb,
  0x1e, 0x02, 0xf5, 0xd7, 0x19, 0xf3, 0xf0, 0xf3, 0xf8, 0x19, 0xe6, 0xe3,
  0x1b, 0x05, 0xd9, 0xd8, 0x08, 0xe9, 0x18, 0x0d, 0xfc, 0xf0, 0xed, 0x09,
  0x06, 0x12, 0x09, 0x14, 0xed, 0xea, 0xef, 0xe8, 0x0e, 0x08, 0x12, 0xef,
  0x2c, 0xff, 0x11, 0xf9, 0x03, 0x01, 0x24, 0xe8, 0xf9, 0x08, 0xf5, 0x11,
  0x39, 0x09, 0x20, 0x0a, 0xf4, 0x0a, 0x07, 0xe5, 0x29, 0x1e, 0xec, 0x01,
  0x33, 0xe6, 0x18, 0x10, 0xf1, 0x0c, 0x34, 0xfe, 0x36, 0xfe, 0xe8, 0xeb,
  0x25, 0x0a, 0x0b, 0x29, 0xea, 0x23, 0x22, 0xdf, 0x21, 0xec, 0xf8, 0xe9,
  0x2a, 0xfc, 0x26, 0xfd, 0xfb, 0x0f, 0x0f, 0xf3, 0x38, 0xe8, 0x04, 0xd9,
  0x20, 0xe4, 0x0b, 0xe3, 0x0f, 0xfe, 0x1c, 0xdf, 0x37, 0xdd, 0xf8, 0xdc,
  0x22, 0xfa, 0x07, 0x0f, 0xf5, 0x00, 0x31, 0xf4, 0xff, 0x0c, 0x02, 0xf5,
  0x30, 0xf8, 0x3b, 0x18, 0x11, 0x0c, 0x01, 0xff, 0x1b, 0x09, 0x28, 0x1a,
  0x24, 0xfa, 0x01, 0x0e, 0x08, 0xd6, 0x43, 0x25, 0x0f, 0xff, 0x0e, 0xea,
  0x25, 0x09, 0x20, 0xfa, 0xfa, 0x24, 0x08, 0x14, 0x1c, 0xfd, 0x20, 0xe4,
  0x1e, 0xeb, 0x21, 0x0d, 0x05, 0x10, 0x00, 0x04, 0xf7, 0x12, 0xe5, 0x0f,
  0x00, 0xe5, 0x27, 0x07, 0xe3, 0xed, 0x10, 0xef, 0x1b, 0xfa, 0xf4, 0x15,
  0xfd, 0x14, 0x17, 0xf6, 0xf1, 0xfc, 0x30, 0xd6, 0x07, 0xfc, 0xf9, 0x18,
  0x12, 0x12, 0x1d, 0x1d, 0xfb, 0x25, 0x06, 0x06, 0x38, 0x17, 0xed, 0x17,
  0x16, 0xe5, 0x0d, 0x10, 0x01, 0xf1, 0x2a, 0xeb, 0xee, 0x10, 0xde, 0x16,
  0x15, 0x26, 0x21, 0x1e, 0xd9, 0x15, 0x02, 0x12, 0x13, 0xf1, 0xf4, 0xe9,
  0x02, 0xfc, 0xfc, 0xdb, 0xf4, 0xfe, 0x00, 0xf3, 0x35, 0x24, 0x00, 0x10,
  0x04, 0x0e, 0x22, 0x21, 0xe5, 0x15, 0x13, 0xf6, 0xf5, 0xf6, 0xdd, 0x15,
  0x34, 0xfe, 0x36, 0xfe, 0xf3, 0x10, 0xf9, 0xf9, 0x14, 0xfb, 0xe6, 0x03,
  0x2d, 0x03, 0x04, 0x05, 0x01, 0x0d, 0x28, 0xdd, 0xfb, 0x17, 0x17, 0x14,
  0xf8, 0x17, 0xff, 0xee, 0xfb, 0x0a, 0xfe, 0x23, 0xf4, 0xf0, 0xf7, 0xf2,
  0xfd, 0x03, 0x28, 0xec, 0xf5, 0xe7, 0x0d, 0x22, 0xf2, 0x06, 0x02, 0xf7,
  0xe8, 0x05, 0x12, 0xfb, 0x06, 0x04, 0xe8, 0x0f, 0x23, 0x01, 0x07, 0x09,
  0x13, 0x02, 0xef, 0x20, 0xf6, 0xf3, 0xfe, 0x19, 0x16, 0x08, 0x0d, 0x2a,
  0x04, 0xec, 0xff, 0xfd, 0xd7, 0xf0, 0xf1, 0x10, 0x01, 0x17, 0xf1, 0x1c,
  0xf1, 0x23, 0x02, 0x1b, 0x0a, 0xf0, 0xf4, 0x0a, 0x10, 0xf5, 0x08, 0xee,
  0xe6, 0x19, 0xd7, 0x08, 0xfe, 0x27, 0xf7, 0x12, 0xe5, 0xf2, 0xfe, 0x0b,
  0x12, 0xf8, 0x10, 0x0e, 0xfe, 0x23, 0xfd, 0xe8, 0xe5, 0xe3, 0xe8, 0xdf,
  0x03, 0x1a, 0xdb, 0x04, 0xff, 0x06, 0x1d, 0x0a, 0xfe, 0xfc, 0x20, 0xfd,
  0x04, 0x01, 0x05, 0xf5, 0xf0, 0xfd, 0x16, 0xfe, 0x0d, 0x0b, 0xfb, 0xf7,
  0x01, 0xf3, 0xf2, 0x14, 0x10, 0x00, 0x01, 0xe3, 0xea, 0xf7, 0x13, 0x00,
  0x05, 0x0a, 0x2b, 0xe5, 0xf0, 0xf0, 0xfc, 0xfb, 0x27, 0xea, 0x0e, 0xff,
  0x0d, 0xde, 0xef, 0x02, 0xef, 0x1d, 0x15, 0x08, 0x25, 0x09, 0x20, 0xf8,
  0x0f, 0x1f, 0xe2, 0xfe, 0xeb, 0x1c, 0x27, 0x08, 0x0f, 0xe0, 0x03, 0xef,
  0x00, 0xf3, 0x20, 0xf4, 0x01, 0xf2, 0x1b, 0xf2, 0x33, 0x1e, 0x06, 0x02,
  0x0e, 0xf3, 0x2d, 0xf0, 0x0c, 0x11, 0x17, 0x28, 0x1a, 0x0a, 0xf2, 0xee,
  0x0b, 0xf4, 0x1d, 0x04, 0x0c, 0xfe, 0x14, 0x0e, 0xe9, 0xe7, 0xeb, 0xfc,
  0x0b, 0x08, 0x0b, 0x01, 0xe0, 0xf1, 0x0f, 0xe0, 0x13, 0xf6, 0xf9, 0x05,
  0x0d, 0x03, 0x0f, 0x12, 0x0d, 0x13, 0x1e, 0x0e, 0x15, 0x0e, 0xfb, 0xfb,
  0x08, 0x0d, 0x07, 0x1d, 0x0b, 0xee, 0x05, 0xe7, 0x30, 0xf8, 0xde, 0x0b,
  0xf9, 0x14, 0xea, 0xeb, 0xfb, 0xf0, 0x04, 0xf9, 0x03, 0xd5, 0xec, 0xfb,
  0xf6, 0x03, 0x24, 0x16, 0xf6, 0xec, 0x0d, 0x06, 0xfb, 0xe8, 0x0e, 0xf2,
  0xe9, 0xf1, 0xff, 0x13, 0xe7, 0x07, 0x0d, 0xeb, 0x12, 0x16, 0x03, 0x0f,
  0xec, 0xf1, 0xf5, 0x25, 0x1f, 0xea, 0xe8, 0xf3, 0xdc, 0x05, 0xeb, 0x13,
  0xfc, 0xf8, 0x16, 0xf9, 0x06, 0xf6, 0xf7, 0xf0, 0x0e, 0x04, 0x11, 0x23,
  0xf4, 0xf1, 0xfa, 0xf6, 0xff, 0x0c, 0xf4, 0x22, 0x1b, 0x0b, 0xfc, 0xeb,
  0x0c, 0x02, 0xfc, 0x13, 0x0b, 0xf9, 0x03, 0xf9, 0x16, 0x04, 0x06, 0x13,
  0xff, 0xe9, 0x27, 0xe2, 0xfe, 0x06, 0xfe, 0x11, 0x06, 0x01, 0xf5, 0x04,
  0x1e, 0xe8, 0x0b, 0x1e, 0x0e, 0xd9, 0x29, 0x28, 0x26, 0xf3, 0xf3, 0x0b,
  0x07, 0x0f, 0xfa, 0xfb, 0xfc, 0x02, 0xe1, 0x03, 0xf4, 0x1f, 0xfb, 0xf2,
  0xe9, 0xf7, 0xfa, 0x1a, 0x11, 0xfc, 0xdf, 0xdb, 0x09, 0x06, 0x07, 0xec,
  0xed, 0xed, 0xfe, 0xee, 0x09, 0x29, 0xfa, 0x03, 0xdb, 0xfb, 0x1d, 0x13,
  0x01, 0x21, 0xee, 0x24, 0xf1, 0xf8, 0xfc, 0x0b, 0xec, 0x29, 0x03, 0xe8,
  0x01, 0xd6, 0xfe, 0xe2, 0x0c, 0xe0, 0x0b, 0x08, 0xe6, 0xf8, 0x12, 0xea,
  0xd8, 0xfd, 0x07, 0x0c, 0xdc, 0x02, 0xf6, 0x0b, 0x09, 0xfd, 0x10, 0xf9,
  0xe1, 0x0c, 0xf7, 0xe6, 0x04, 0xe5, 0x03, 0x04, 0x09, 0xf9, 0x06, 0xee,
  0x1d, 0xd7, 0x00, 0xea, 0x17, 0x1c, 0x20, 0xe6, 0xde, 0x01, 0x04, 0xef,
  0xf4, 0xe7, 0xe5, 0xdf, 0x0f, 0x1d, 0xee, 0xff, 0x18, 0xeb, 0xea, 0xea,
  0xe7, 0xe9, 0xee, 0x02, 0x16, 0x07, 0xeb, 0x16, 0x07, 0x06, 0xed, 0xeb,
  0xf0, 0xee, 0x16, 0x09, 0x03, 0x12, 0xff, 0x12, 0x0a, 0xfa, 0x05, 0x0b,
  0x0b, 0x26, 0x08, 0xe6, 0x09, 0xd5, 0x0d, 0x17, 0xec, 0xf8, 0xeb, 0xf8,
  0xfb, 0xe9, 0x04, 0x09, 0xdd, 0xf9, 0x09, 0xe7, 0x1c, 0xf7, 0xfe, 0xe3,
  0x08, 0x26, 0xf7, 0x0b, 0x29, 0x01, 0x22, 0x13, 0x0a, 0x02, 0x1b, 0x0f,
  0xfd, 0xf3, 0x0d, 0x02, 0xee, 0x04, 0xec, 0x1e, 0xf5, 0xef, 0x24, 0x29,
  0xee, 0x1a, 0x1c, 0xfd, 0xf1, 0xe8, 0xef, 0xfe, 0xf6, 0x04, 0x12, 0xdf,
  0xdb, 0xdb, 0x01, 0x28, 0xf7, 0x14, 0x1f, 0x0c, 0xe6, 0x03, 0x00, 0xed,
  0xe2, 0x16, 0xfd, 0x0b, 0xf7, 0x1c, 0x0b, 0xf9, 0x0e, 0xef, 0xf8, 0xfe,
  0xd9, 0x01, 0xe6, 0xe6, 0xfa, 0x05, 0x2d, 0x12, 0x03, 0x03, 0xeb, 0x04,
  0x0a, 0x19, 0x1c, 0xf4, 0x07, 0xd5, 0xfe, 0x05, 0xea, 0xd7, 0x1e, 0xf4,
  0xe7, 0x06, 0xef, 0x09, 0xf6, 0xf5, 0x11, 0xf8, 0x24, 0x11, 0xff, 0xf3,
  0xef, 0xdd, 0xf3, 0xea, 0xf7, 0x03, 0x08, 0xed, 0x15, 0xf9, 0xfa, 0x12,
  0xed, 0x0f, 0x08, 0xf6, 0x0b, 0x11, 0x08, 0xf6, 0xea, 0xec, 0x15, 0x06,
  0xe6, 0xf4, 0xe4, 0x0a, 0x04, 0x00, 0xf1, 0xf0, 0x1a, 0xf0, 0x21, 0x15,
  0xeb, 0x14, 0x02, 0xeb, 0xf9, 0xfb, 0x1e, 0x0b, 0x21, 0xfc, 0x16, 0xfb,
  0x05, 0xfb, 0x02, 0xe3, 0x10, 0x06, 0xf7, 0x01, 0xdf, 0x09, 0xfc, 0xf5,
  0xf9, 0x0d, 0x09, 0xea, 0x06, 0x13, 0x19, 0x19, 0x23, 0x01, 0xf8, 0xe1,
  0x07, 0x02, 0x04, 0x02, 0xff, 0x12, 0xfe, 0x03, 0xf4, 0x0d, 0xef, 0xde,
  0x0d, 0x13, 0xd5, 0xfb, 0x01, 0x11, 0xef, 0xfd, 0xfe, 0xfb, 0xdd, 0x03,
  0x15, 0x01, 0xe5, 0x05, 0xfb, 0x00, 0x02, 0x00, 0x14, 0x04, 0xfd, 0x08,
  0x0d, 0xfb, 0x0c, 0xfa, 0xef, 0xf9, 0x23, 0x06, 0xd8, 0xe7, 0x0a, 0x09,
  0xc5, 0x26, 0xee, 0xf5, 0x0d, 0xe3, 0xdb, 0xdd, 0xf2, 0x0b, 0x1d, 0xdc,
  0xc4, 0x1a, 0xf3, 0x04, 0xee, 0xf7, 0xa7, 0xf0, 0xf6, 0xe0, 0xef, 0x0a,
  0xde, 0x18, 0x1a, 0xf2, 0x09, 0x07, 0xd1, 0x06, 0xe5, 0x0f, 0xfd, 0xf7,
  0xe5, 0xed, 0xe1, 0xf9, 0x08, 0xfe, 0xe3, 0xf8, 0xda, 0x07, 0x03, 0x03,
  0xbe, 0xee, 0xf6, 0xd8, 0x15, 0x05, 0xbd, 0x0b, 0x07, 0xfb, 0xf6, 0x07,
  0xbf, 0x0b, 0xec, 0xe8, 0x0b, 0x23, 0xe8, 0xf7, 0xe9, 0x00, 0x05, 0xf3,
  0xac, 0x15, 0x10, 0xec, 0x1d, 0xe5, 0xc9, 0xed, 0x0c, 0x13, 0x0c, 0x07,
  0xcf, 0xec, 0x11, 0xf3, 0xe7, 0xf7, 0xca, 0x1a, 0xf6, 0x04, 0xe7, 0xe1,
  0xd8, 0x23, 0xe0, 0x00, 0xf9, 0x17, 0xd1, 0xf2, 0x1d, 0x13, 0x03, 0x01,
  0xaa, 0x0f, 0x11, 0xf5, 0x16, 0x0b, 0xeb, 0x2e, 0xe4, 0x06, 0x01, 0x15,
  0x00, 0xf1, 0xf0, 0xe2, 0x12, 0x10, 0xf5, 0x14, 0xf4, 0x1f, 0x05, 0x04,
  0xff, 0xf8, 0x15, 0x10, 0x14, 0x14, 0x20, 0x00, 0xf6, 0x02, 0x0f, 0xe7,
  0xed, 0x1b, 0xec, 0x1b, 0xf4, 0x04, 0xe2, 0x10, 0x07, 0x1f, 0x01, 0xfb,
  0xf6, 0x10, 0x13, 0xf3, 0x08, 0xeb, 0x0d, 0x1a, 0x12, 0xe3, 0xf7, 0xfa,
  0x04, 0x18, 0x14, 0xf9, 0xfc, 0xfc, 0xee, 0x09, 0xd6, 0xfb, 0xf6, 0xe8,
  0xf7, 0x0d, 0xfa, 0xf8, 0xe2, 0xff, 0xda, 0x0a, 0xf5, 0xe7, 0xef, 0x0a,
  0x0c, 0x05, 0xf4, 0x02, 0x10, 0xf5, 0xf3, 0xf8, 0xf8, 0x11, 0x24, 0x1e,
  0x20, 0x11, 0x06, 0x0e, 0xdc, 0xec, 0x13, 0xf2, 0x10, 0xe8, 0xf6, 0xf8,
  0x0a, 0xf8, 0x1a, 0x0e, 0x0d, 0xf6, 0xfe, 0xfa, 0xfe, 0xf4, 0x22, 0xfb,
  0x09, 0x0f, 0xfb, 0x24, 0xeb, 0x0e, 0xfd, 0xe3, 0xfb, 0x1c, 0xe7, 0x0b,
  0x08, 0x04, 0xe2, 0xe8, 0x00, 0x0f, 0xe5, 0xef, 0x1d, 0x04, 0xf4, 0x1e,
  0xe8, 0xfa, 0x0d, 0x15, 0xfa, 0xef, 0xe1, 0x17, 0x11, 0xf1, 0x13, 0x0a,
  0x1b, 0x12, 0x09, 0xee, 0xe1, 0xe4, 0xf3, 0xed, 0x13, 0xe6, 0x0f, 0xf8,
  0xf8, 0xec, 0xf2, 0xdd, 0x00, 0xe1, 0xf0, 0xfc, 0x0d, 0x12, 0x01, 0x0a,
  0x07, 0x03, 0x02, 0x12, 0x13, 0xe3, 0x0a, 0x17, 0xf2, 0x08, 0xed, 0xeb,
  0xe0, 0xe9, 0xe0, 0x10, 0x0c, 0x0c, 0x16, 0xd8, 0x03, 0x0d, 0xe3, 0xfd,
  0xfc, 0xe6, 0x10, 0x08, 0xff, 0x15, 0xee, 0x11, 0xf8, 0xf3, 0xfd, 0xea,
  0x01, 0x0b, 0xfb, 0xff, 0xfb, 0xf6, 0x03, 0xf5, 0x02, 0xe8, 0x0b, 0xf6,
  0x18, 0x0c, 0xfe, 0xf9, 0xfd, 0x09, 0x2c, 0xe3, 0xec, 0x08, 0x08, 0xfe,
  0x14, 0x0d, 0x03, 0xf6, 0x16, 0xfc, 0xf7, 0x0e, 0x07, 0x16, 0xfd, 0x02,
  0xbc, 0xfa, 0xff, 0xff, 0xc0, 0xfa, 0xff, 0xff, 0xf6, 0xfa, 0xff, 0xff,
  0x04, 0x00, 0x00, 0x00, 0xee, 0x02, 0x00, 0x00, 0x46, 0x11, 0x5f, 0x47,
  0x7f, 0x12, 0x3b, 0x1d, 0x19, 0xc9, 0xe4, 0x2b, 0x69, 0x30, 0x33, 0xf9,
  0xf6, 0xc8, 0x06, 0x10, 0xd7, 0xef, 0x18, 0xf0, 0xbd, 0x21, 0xf4, 0xd0,
  0x60, 0x0f, 0xbb, 0x18, 0xc8, 0xf0, 0xf9, 0x24, 0xf7, 0xd8, 0x1b, 0xf3,
  0xe0, 0x00, 0x1d, 0xfc, 0xfb, 0xf3, 0x10, 0x37, 0xdf, 0xf0, 0x06, 0x06,
  0x18, 0xf2, 0x00, 0x06, 0xd6, 0xf5, 0x00, 0x00, 0x0d, 0x02, 0xff, 0x0f,
  0x0b, 0xfe, 0x09, 0xfb, 0x07, 0x0a, 0xf5, 0x1b, 0xef, 0xf3, 0xeb, 0x25,
  0xf5, 0xd3, 0xed, 0xeb, 0xfa, 0xf4, 0xf4, 0xff, 0xf5, 0x1c, 0x00, 0x08,
  0x2b, 0x16, 0x1c, 0xf0, 0xe4, 0x02, 0x16, 0x1a, 0x21, 0xd2, 0x06, 0x0c,
  0x06, 0xf2, 0xcf, 0xd1, 0xc9, 0xee, 0xe3, 0x1f, 0x29, 0x00, 0x13, 0x07,
  0xe0, 0x4d, 0xe1, 0xd8, 0x08, 0x16, 0x0f, 0xfb, 0x28, 0xdd, 0xfe, 0x1b,
  0x6d, 0xfc, 0xe1, 0x2e, 0xe6, 0x0e, 0x2f, 0x29, 0x28, 0x19, 0xe8, 0xf9,
  0xdb, 0x02, 0x1e, 0x26, 0x16, 0x07, 0x41, 0x26, 0xf3, 0x0d, 0xef, 0xd6,
  0xf5, 0xdb, 0xd6, 0xfb, 0x05, 0xd8, 0xbc, 0x08, 0xf3, 0xf9, 0x03, 0x21,
  0xfe, 0xda, 0xc9, 0x09, 0xdc, 0x1d, 0x09, 0x35, 0xeb, 0xfc, 0x1c, 0x1c,
  0xec, 0xed, 0x3e, 0x23, 0x25, 0x31, 0xc4, 0x12, 0x17, 0x25, 0x14, 0xfe,
  0x20, 0x17, 0x1f, 0x03, 0xe3, 0x47, 0x1e, 0x03, 0x05, 0x02, 0x24, 0xff,
  0x0c, 0xe7, 0x27, 0xf4, 0x4d, 0xf9, 0x2f, 0x59, 0x42, 0xd7, 0x3b, 0xe9,
  0x21, 0xe5, 0xef, 0x2c, 0x33, 0xed, 0x13, 0xf3, 0x0c, 0xcc, 0xe9, 0xf3,
  0xf9, 0x04, 0xf3, 0xf6, 0xb4, 0xf6, 0x13, 0xcc, 0x29, 0x17, 0xeb, 0x0b,
  0xf0, 0xc8, 0x04, 0x08, 0x21, 0xef, 0xe1, 0xd2, 0x08, 0xf5, 0xe4, 0xeb,
  0xfa, 0xf3, 0x03, 0x4c, 0x05, 0xe3, 0xf0, 0xd2, 0xe0, 0xdb, 0xaf, 0x1c,
  0xce, 0xfa, 0x31, 0x34, 0xeb, 0xd6, 0xef, 0xec, 0x09, 0x08, 0x27, 0x3c,
  0x08, 0x22, 0xf6, 0xeb, 0xfd, 0xfb, 0x4d, 0xee, 0x30, 0x38, 0xbb, 0xdc,
  0x19, 0xfb, 0x16, 0x06, 0xe7, 0xfd, 0xf6, 0x06, 0x10, 0x16, 0x29, 0x1a,
  0xfd, 0x05, 0xe7, 0xdd, 0xe6, 0xe5, 0x26, 0xe2, 0x1a, 0x0f, 0xf4, 0x0b,
  0xf1, 0x15, 0xe0, 0x0a, 0xfb, 0x11, 0x0e, 0xe5, 0xd8, 0xff, 0xf4, 0x07,
  0x17, 0xfe, 0x08, 0x0d, 0x0b, 0xf2, 0xf8, 0xf1, 0xf0, 0x0f, 0xed, 0xe0,
  0xdc, 0x27, 0xfa, 0x16, 0x06, 0x11, 0xf2, 0xf8, 0xec, 0x07, 0x0f, 0x0f,
  0xfa, 0x06, 0xd1, 0xe5, 0x19, 0xf5, 0xfa, 0xf0, 0xdc, 0xfe, 0x36, 0xfd,
  0x42, 0x3e, 0x54, 0xfd, 0x21, 0xe7, 0xe7, 0xd0, 0x27, 0x0f, 0x36, 0x00,
  0xec, 0xe6, 0xd3, 0x02, 0x08, 0x1c, 0x00, 0xd1, 0xed, 0xfa, 0xdd, 0x05,
  0x03, 0xf1, 0x42, 0xfa, 0xd5, 0x0d, 0xe8, 0xf1, 0x15, 0xfd, 0x08, 0xf4,
  0xf2, 0xe8, 0xe9, 0x06, 0x1d, 0x07, 0x21, 0xee, 0xf6, 0x48, 0xff, 0xef,
  0x19, 0xfb, 0x01, 0x07, 0xf4, 0xf3, 0xd7, 0xe3, 0xec, 0xdc, 0x12, 0x00,
  0xeb, 0x11, 0xf8, 0x05, 0x03, 0x09, 0x30, 0xdc, 0x06, 0x22, 0x2a, 0x0d,
  0xd4, 0xf3, 0xec, 0x18, 0xeb, 0x0a, 0x21, 0xfe, 0x08, 0x27, 0x00, 0x0e,
  0xfd, 0xf6, 0xde, 0x0a, 0x10, 0xf0, 0xe3, 0xf5, 0x13, 0x15, 0x05, 0x03,
  0xe0, 0x1b, 0xf3, 0xe2, 0xd1, 0xc7, 0xc2, 0xe2, 0xf3, 0xf9, 0x03, 0x31,
  0x10, 0xe4, 0xe3, 0x63, 0xd6, 0xe9, 0x08, 0x33, 0x25, 0x17, 0xf6, 0x04,
  0xf4, 0x02, 0x3c, 0x08, 0xe8, 0x34, 0x0b, 0xf8, 0x33, 0x1e, 0x42, 0x38,
  0x1e, 0x01, 0x00, 0xe4, 0x13, 0x31, 0x1b, 0x03, 0x29, 0x0e, 0xf7, 0xfe,
  0x26, 0xd7, 0xf5, 0x0c, 0xec, 0x2d, 0xf9, 0xfe, 0xec, 0x14, 0xd5, 0xdc,
  0xdb, 0x25, 0x0e, 0xe0, 0xf5, 0x17, 0xd6, 0x0e, 0x0a, 0xf0, 0xda, 0x1a,
  0xf6, 0xda, 0xef, 0xe1, 0xf5, 0xf2, 0x25, 0x26, 0xd9, 0xd7, 0x19, 0xe1,
  0xfe, 0xe2, 0x06, 0x07, 0x0c, 0xe7, 0xfb, 0xdf, 0xf7, 0x15, 0xe1, 0x0e,
  0xe8, 0xd9, 0xe3, 0xfe, 0x29, 0xfc, 0xd8, 0xd5, 0xbf, 0xd4, 0xec, 0xee,
  0x0a, 0x1f, 0x05, 0x25, 0x0a, 0xfa, 0x14, 0x2e, 0xc5, 0xe3, 0xeb, 0x22,
  0x1d, 0xf9, 0xf1, 0x20, 0x0a, 0xfa, 0x24, 0x2b, 0xf8, 0x2f, 0xcd, 0x0e,
  0x26, 0x19, 0x0a, 0x38, 0xd6, 0xe1, 0xe9, 0x2a, 0x08, 0x15, 0x05, 0xf5,
  0x3a, 0xf6, 0xe2, 0xdb, 0x02, 0xdd, 0x04, 0xe3, 0x1a, 0x10, 0xf8, 0x05,
  0xf7, 0xd4, 0xf7, 0x15, 0xec, 0xf8, 0xd1, 0x07, 0x27, 0xf2, 0xfc, 0xe5,
  0xeb, 0xf9, 0xfd, 0x09, 0xf6, 0xf5, 0xfd, 0x29, 0x0f, 0x20, 0xfd, 0x0b,
  0xf2, 0xdf, 0x1c, 0xe9, 0x0e, 0x02, 0xfc, 0xf2, 0x02, 0x05, 0xf8, 0x04,
  0x2d, 0x02, 0xd8, 0xed, 0xf2, 0xec, 0xf6, 0xf0, 0xf4, 0xf5, 0xeb, 0xef,
  0x26, 0x00, 0xe2, 0x2e, 0xf8, 0x05, 0xda, 0x02, 0x30, 0xfe, 0x04, 0xed,
  0xf1, 0xe1, 0x16, 0xd3, 0x19, 0x05, 0x01, 0x02, 0xf8, 0xf2, 0x07, 0x2f,
  0xdc, 0x12, 0xf5, 0xed, 0xdd, 0x2a, 0x00, 0x09, 0x00, 0x05, 0x15, 0xff,
  0xdb, 0x1a, 0xdf, 0x17, 0xed, 0x18, 0x2c, 0xeb, 0x01, 0x12, 0xee, 0x23,
  0xf7, 0xe6, 0x1a, 0xf7, 0x0c, 0xf0, 0xec, 0xf4, 0x0d, 0xea, 0x0b, 0xe5,
  0xdf, 0xfc, 0x14, 0xfa, 0xf5, 0xea, 0x07, 0xf5, 0x12, 0xfb, 0x10, 0x12,
  0x00, 0xec, 0xfc, 0x11, 0x05, 0x01, 0xfe, 0x0d, 0xf3, 0xe8, 0xfc, 0x09,
  0x05, 0x18, 0xe7, 0xfc, 0x1b, 0xf1, 0xe4, 0xeb, 0x1b, 0x06, 0x0b, 0x17,
  0x08, 0x2b, 0x00, 0x00, 0xc0, 0xfd, 0xff, 0xff, 0xf6, 0xfd, 0xff, 0xff,
  0x04, 0x00, 0x00, 0x00, 0xc8, 0x00, 0x00, 0x00, 0x51, 0x93, 0x00, 0x00,
  0x00, 0x00, 0x00, 0x00, 0x1d, 0xa6, 0x00, 0x00, 0xd7, 0xb5, 0x00, 0x00,
  0x3d, 0x45, 0x01, 0x00, 0x07, 0xfb, 0xff, 0xff, 0x8e, 0x82, 0x00, 0x00,
  0x00, 0x00, 0x00, 0x00, 0xed, 0x53, 0x00, 0x00, 0x45, 0xc5, 0xff, 0xff,
  0x00, 0x00, 0x00, 0x00, 0x42, 0x7d, 0x00, 0x00, 0x55, 0xec, 0x00, 0x00,
  0xc8, 0x81, 0x00, 0x00, 0x27, 0x21, 0x00, 0x00, 0x53, 0xf9, 0xff, 0xff,
  0x00, 0x00, 0x00, 0x00, 0xa1, 0xc7, 0xff, 0xff, 0x00, 0x00, 0x00, 0x00,
  0x74, 0x07, 0x00, 0x00, 0x00, 0x00, 0x00, 0x00, 0x85, 0xf9, 0xff, 0xff,
  0xba, 0xf9, 0xff, 0xff, 0x00, 0x00, 0x00, 0x00, 0x70, 0x92, 0xff, 0xff,
  0x00, 0x00, 0x00, 0x00, 0xdb, 0xfa, 0xff, 0xff, 0x5b, 0xfb, 0xff, 0xff,
  0x84, 0x0d, 0x01, 0x00, 0x00, 0x00, 0x00, 0x00, 0x45, 0xc5, 0xff, 0xff,
  0x00, 0x00, 0x00, 0x00, 0xc2, 0xf0, 0xff, 0xff, 0x2e, 0x56, 0x00, 0x00,
  0x00, 0x00, 0x00, 0x00, 0x7e, 0x16, 0x00, 0x00, 0x44, 0xfb, 0xff, 0xff,
  0xd7, 0xf5, 0xff, 0xff, 0x00, 0x00, 0x00, 0x00, 0x9f, 0xf9, 0xff, 0xff,
  0x82, 0xf4, 0xff, 0xff, 0x05, 0xfc, 0xff, 0xff, 0x7b, 0x43, 0x00, 0x00,
  0x13, 0xef, 0xff, 0xff, 0xd1, 0xf3, 0xff, 0xff, 0x2c, 0xf4, 0xff, 0xff,
  0x00, 0x00, 0x00, 0x00, 0x7c, 0x9f, 0x00, 0x00, 0x34, 0xfd, 0xff, 0xff,
  0x8f, 0xee, 0xff, 0xff, 0xca, 0xfe, 0xff, 0xff, 0x04, 0x00, 0x00, 0x00,
  0x3c, 0x00, 0x00, 0x00, 0x10, 0x15, 0x00, 0x00, 0x7d, 0xff, 0xff, 0xff,
  0xbb, 0x16, 0x00, 0x00, 0x9b, 0xf6, 0xff, 0xff, 0x8e, 0x00, 0x00, 0x00,
  0xae, 0xf7, 0xff, 0xff, 0x00, 0x00, 0x00, 0x00, 0xc3, 0x0c, 0x00, 0x00,
  0x46, 0xfc, 0xff, 0xff, 0x66, 0x14, 0x00, 0x00, 0x00, 0x00, 0x00, 0x00,
  0xb2, 0x0b, 0x00, 0x00, 0x6a, 0xfd, 0xff, 0xff, 0xd6, 0xff, 0xff, 0xff,
  0xf9, 0xff, 0xff, 0xff, 0x12, 0xff, 0xff, 0xff, 0x04, 0x00, 0x00, 0x00,
  0x2d, 0x00, 0x00, 0x00, 0x3e, 0xfa, 0x00, 0xce, 0xa6, 0x87, 0xef, 0x36,
  0x08, 0xfe, 0x13, 0x23, 0x04, 0x11, 0xfb, 0x83, 0x04, 0x0d, 0x7f, 0xcd,
  0x3f, 0xf4, 0xa5, 0xf5, 0x1b, 0x0f, 0x17, 0xf9, 0xe9, 0xe8, 0x62, 0xd3,
  0x93, 0xfd, 0x64, 0xe2, 0x1b, 0x2d, 0x00, 0x93, 0xd9, 0x9a, 0x2c, 0xe0,
  0xee, 0x00, 0x00, 0x00, 0x4e, 0xff, 0xff, 0xff, 0x04, 0x00, 0x00, 0x00,
  0x0c, 0x00, 0x00, 0x00, 0xe7, 0x00, 0x00, 0x00, 0xb0, 0xfe, 0xff, 0xff,
  0x47, 0xfe, 0xff, 0xff, 0x34, 0xff, 0xff, 0xff, 0x0f, 0x00, 0x00, 0x00,
  0x54, 0x4f, 0x43, 0x4f, 0x20, 0x43, 0x6f, 0x6e, 0x76, 0x65, 0x72, 0x74,
  0x65, 0x64, 0x2e, 0x00, 0x01, 0x00, 0x00, 0x00, 0x04, 0x00, 0x00, 0x00,
  0x00, 0xf9, 0xff, 0xff, 0x94, 0x01, 0x00, 0x00, 0x88, 0x01, 0x00, 0x00,
  0x7c, 0x01, 0x00, 0x00, 0x04, 0x00, 0x00, 0x00, 0x06, 0x00, 0x00, 0x00,
  0x50, 0x01, 0x00, 0x00, 0x04, 0x01, 0x00, 0x00, 0xbc, 0x00, 0x00, 0x00,
  0x74, 0x00, 0x00, 0x00, 0x38, 0x00, 0x00, 0x00, 0x04, 0x00, 0x00, 0x00,
  0xd2, 0xfe, 0xff, 0xff, 0x03, 0x00, 0x00, 0x00, 0x10, 0x00, 0x00, 0x00,
  0x04, 0x00, 0x00, 0x00, 0x01, 0x00, 0x00, 0x00, 0x0c, 0x00, 0x00, 0x00,
  0x01, 0x00, 0x00, 0x00, 0x00, 0x00, 0x00, 0x00, 0x00, 0x00, 0x0e, 0x00,
  0x1a, 0x00, 0x08, 0x00, 0x0c, 0x00, 0x10, 0x00, 0x07, 0x00, 0x14, 0x00,
  0x0e, 0x00, 0x00, 0x00, 0x00, 0x00, 0x00, 0x09, 0x01, 0x00, 0x00, 0x00,
  0x24, 0x00, 0x00, 0x00, 0x18, 0x00, 0x00, 0x00, 0x0c, 0x00, 0x00, 0x00,
  0x00, 0x00, 0x06, 0x00, 0x08, 0x00, 0x04, 0x00, 0x06, 0x00, 0x00, 0x00,
  0x00, 0x00, 0x80, 0x3f, 0x01, 0x00, 0x00, 0x00, 0x00, 0x00, 0x00, 0x00,
  0x01, 0x00, 0x00, 0x00, 0x08, 0x00, 0x00, 0x00, 0xca, 0xff, 0xff, 0xff,
  0x00, 0x00, 0x00, 0x08, 0x1c, 0x00, 0x00, 0x00, 0x10, 0x00, 0x00, 0x00,
  0x08, 0x00, 0x00, 0x00, 0x04, 0x00, 0x04, 0x00, 0x04, 0x00, 0x00, 0x00,
  0x01, 0x00, 0x00, 0x00, 0x08, 0x00, 0x00, 0x00, 0x03, 0x00, 0x00, 0x00,
  0x07, 0x00, 0x00, 0x00, 0x09, 0x00, 0x00, 0x00, 0x0a, 0x00, 0x00, 0x00,
  0x00, 0x00, 0x0e, 0x00, 0x14, 0x00, 0x00, 0x00, 0x08, 0x00, 0x0c, 0x00,
  0x07, 0x00, 0x10, 0x00, 0x0e, 0x00, 0x00, 0x00, 0x00, 0x00, 0x00, 0x08,
  0x1c, 0x00, 0x00, 0x00, 0x10, 0x00, 0x00, 0x00, 0x04, 0x00, 0x00, 0x00,
  0xba, 0xff, 0xff, 0xff, 0x00, 0x00, 0x00, 0x01, 0x01, 0x00, 0x00, 0x00,
  0x07, 0x00, 0x00, 0x00, 0x03, 0x00, 0x00, 0x00, 0x04, 0x00, 0x00, 0x00,
  0x05, 0x00, 0x00, 0x00, 0x06, 0x00, 0x00, 0x00, 0x00, 0x00, 0x0e, 0x00,
  0x16, 0x00, 0x00, 0x00, 0x08, 0x00, 0x0c, 0x00, 0x07, 0x00, 0x10, 0x00,
  0x0e, 0x00, 0x00, 0x00, 0x00, 0x00, 0x00, 0x08, 0x24, 0x00, 0x00, 0x00,
  0x18, 0x00, 0x00, 0x00, 0x0c, 0x00, 0x00, 0x00, 0x00, 0x00, 0x06, 0x00,
  0x08, 0x00, 0x07, 0x00, 0x06, 0x00, 0x00, 0x00, 0x00, 0x00, 0x00, 0x01,
  0x01, 0x00, 0x00, 0x00, 0x04, 0x00, 0x00, 0x00, 0x03, 0x00, 0x00, 0x00,
  0x01, 0x00, 0x00, 0x00, 0x02, 0x00, 0x00, 0x00, 0x03, 0x00, 0x00, 0x00,
  0x00, 0x00, 0x0a, 0x00, 0x10, 0x00, 0x04, 0x00, 0x08, 0x00, 0x0c, 0x00,
  0x0a, 0x00, 0x00, 0x00, 0x02, 0x00, 0x00, 0x00, 0x10, 0x00, 0x00, 0x00,
  0x04, 0x00, 0x00, 0x00, 0x01, 0x00, 0x00, 0x00, 0x01, 0x00, 0x00, 0x00,
  0x01, 0x00, 0x00, 0x00, 0x0b, 0x00, 0x00, 0x00, 0x01, 0x00, 0x00, 0x00,
  0x0c, 0x00, 0x00, 0x00, 0x01, 0x00, 0x00, 0x00, 0x0b, 0x00, 0x00, 0x00,
  0x0d, 0x00, 0x00, 0x00, 0xe4, 0x05, 0x00, 0x00, 0x48, 0x05, 0x00, 0x00,
  0xa8, 0x04, 0x00, 0x00, 0x34, 0x04, 0x00, 0x00, 0xb0, 0x03, 0x00, 0x00,
  0x0c, 0x03, 0x00, 0x00, 0x98, 0x02, 0x00, 0x00, 0x14, 0x02, 0x00, 0x00,
  0x88, 0x01, 0x00, 0x00, 0xe4, 0x00, 0x00, 0x00, 0x70, 0x00, 0x00, 0x00,
  0x3c, 0x00, 0x00, 0x00, 0x04, 0x00, 0x00, 0x00, 0xd8, 0xff, 0xff, 0xff,
  0x18, 0x00, 0x00, 0x00, 0x04, 0x00, 0x00, 0x00, 0x08, 0x00, 0x00, 0x00,
  0x49, 0x64, 0x65, 0x6e, 0x74, 0x69, 0x74, 0x79, 0x00, 0x00, 0x00, 0x00,
  0x02, 0x00, 0x00, 0x00, 0x01, 0x00, 0x00, 0x00, 0x03, 0x00, 0x00, 0x00,
  0x0c, 0x00, 0x0c, 0x00, 0x04, 0x00, 0x00, 0x00, 0x00, 0x00, 0x08, 0x00,
  0x0c, 0x00, 0x00, 0x00, 0x20, 0x00, 0x00, 0x00, 0x04, 0x00, 0x00, 0x00,
  0x12, 0x00, 0x00, 0x00, 0x64, 0x65, 0x6e, 0x73, 0x65, 0x5f, 0x44, 0x65,
  0x6e, 0x73, 0x65, 0x31, 0x5f, 0x69, 0x6e, 0x70, 0x75, 0x74, 0x00, 0x00,
  0x02, 0x00, 0x00, 0x00, 0x01, 0x00, 0x00, 0x00, 0x78, 0x00, 0x00, 0x00,
  0xc2, 0xfa, 0xff, 0xff, 0x00, 0x00, 0x00, 0x02, 0x60, 0x00, 0x00, 0x00,
  0x01, 0x00, 0x00, 0x00, 0x2c, 0x00, 0x00, 0x00, 0x04, 0x00, 0x00, 0x00,
  0xb4, 0xfa, 0xff, 0xff, 0x18, 0x00, 0x00, 0x00, 0x04, 0x00, 0x00, 0x00,
  0x01, 0x00, 0x00, 0x00, 0x00, 0x00, 0x00, 0x00, 0x00, 0x00, 0x00, 0x00,
  0x00, 0x00, 0x00, 0x00, 0x01, 0x00, 0x00, 0x00, 0x2a, 0x5d, 0xa3, 0x39,
  0x25, 0x00, 0x00, 0x00, 0x73, 0x65, 0x71, 0x75, 0x65, 0x6e, 0x74, 0x69,
  0x61, 0x6c, 0x5f, 0x31, 0x2f, 0x64, 0x65, 0x6e, 0x73, 0x65, 0x5f, 0x44,
  0x65, 0x6e, 0x73, 0x65, 0x33, 0x2f, 0x4d, 0x61, 0x74, 0x4d, 0x75, 0x6c,
  0x5f, 0x62, 0x69, 0x61, 0x73, 0x00, 0x00, 0x00, 0x01, 0x00, 0x00, 0x00,
  0x03, 0x00, 0x00, 0x00, 0x32, 0xfb, 0xff, 0xff, 0x00, 0x00, 0x00, 0x09,
  0x8c, 0x00, 0x00, 0x00, 0x02, 0x00, 0x00, 0x00, 0x44, 0x00, 0x00, 0x00,
  0x04, 0x00, 0x00, 0x00, 0xbc, 0xfb, 0xff, 0xff, 0x30, 0x00, 0x00, 0x00,
  0x24, 0x00, 0x00, 0x00, 0x18, 0x00, 0x00, 0x00, 0x04, 0x00, 0x00, 0x00,
  0x01, 0x00, 0x00, 0x00, 0x00, 0x00, 0x00, 0x00, 0x00, 0x00, 0x00, 0x00,
  0x00, 0x00, 0x00, 0x00, 0x01, 0x00, 0x00, 0x00, 0xd7, 0x30, 0x2b, 0x3c,
  0x01, 0x00, 0x00, 0x00, 0x75, 0xda, 0xa9, 0x3f, 0x01, 0x00, 0x00, 0x00,
  0xd8, 0x56, 0xa7, 0xbf, 0x39, 0x00, 0x00, 0x00, 0x73, 0x65, 0x71, 0x75,
  0x65, 0x6e, 0x74, 0x69, 0x61, 0x6c, 0x5f, 0x31, 0x2f, 0x64, 0x65, 0x6e,
  0x73, 0x65, 0x5f, 0x44, 0x65, 0x6e, 0x73, 0x65, 0x33, 0x2f, 0x4d, 0x61,
  0x74, 0x4d, 0x75, 0x6c, 0x2f, 0x52, 0x65, 0x61, 0x64, 0x56, 0x61, 0x72,
  0x69, 0x61, 0x62, 0x6c, 0x65, 0x4f, 0x70, 0x2f, 0x74, 0x72, 0x61, 0x6e,
  0x73, 0x70, 0x6f, 0x73, 0x65, 0x00, 0x00, 0x00, 0x02, 0x00, 0x00, 0x00,
  0x03, 0x00, 0x00, 0x00, 0x0f, 0x00, 0x00, 0x00, 0xd2, 0xfb, 0xff, 0xff,
  0x00, 0x00, 0x00, 0x09, 0x74, 0x00, 0x00, 0x00, 0x0b, 0x00, 0x00, 0x00,
  0x44, 0x00, 0x00, 0x00, 0x04, 0x00, 0x00, 0x00, 0x5c, 0xfc, 0xff, 0xff,
  0x30, 0x00, 0x00, 0x00, 0x24, 0x00, 0x00, 0x00, 0x18, 0x00, 0x00, 0x00,
  0x04, 0x00, 0x00, 0x00, 0x01, 0x00, 0x00, 0x00, 0x08, 0x00, 0x00, 0x00,
  0x00, 0x00, 0x00, 0x00, 0x00, 0x00, 0x00, 0x00, 0x01, 0x00, 0x00, 0x00,
  0x0e, 0x8b, 0x00, 0x3e, 0x01, 0x00, 0x00, 0x00, 0x6f, 0x8a, 0x6e, 0x41,
  0x01, 0x00, 0x00, 0x00, 0xce, 0xcf, 0x88, 0xc1, 0x21, 0x00, 0x00, 0x00,
  0x73, 0x65, 0x71, 0x75, 0x65, 0x6e, 0x74, 0x69, 0x61, 0x6c, 0x5f, 0x31,
  0x2f, 0x64, 0x65, 0x6e, 0x73, 0x65, 0x5f, 0x44, 0x65, 0x6e, 0x73, 0x65,
  0x33, 0x2f, 0x42, 0x69, 0x61, 0x73, 0x41, 0x64, 0x64, 0x00, 0x00, 0x00,
  0x02, 0x00, 0x00, 0x00, 0x01, 0x00, 0x00, 0x00, 0x03, 0x00, 0x00, 0x00,
  0x5a, 0xfc, 0xff, 0xff, 0x00, 0x00, 0x00, 0x09, 0x6c, 0x00, 0x00, 0x00,
  0x08, 0x00, 0x00, 0x00, 0x40, 0x00, 0x00, 0x00, 0x04, 0x00, 0x00, 0x00,
  0xe4, 0xfc, 0xff, 0xff, 0x2c, 0x00, 0x00, 0x00, 0x20, 0x00, 0x00, 0x00,
  0x14, 0x00, 0x00, 0x00, 0x04, 0x00, 0x00, 0x00, 0x01, 0x00, 0x00, 0x00,
  0x80, 0xff, 0xff, 0xff, 0xff, 0xff, 0xff, 0xff, 0x01, 0x00, 0x00, 0x00,
  0xb0, 0x4b, 0xf4, 0x3c, 0x01, 0x00, 0x00, 0x00, 0x64, 0x57, 0xf3, 0x40,
  0x01, 0x00, 0x00, 0x00, 0x00, 0x00, 0x00, 0x00, 0x1e, 0x00, 0x00, 0x00,
  0x73, 0x65, 0x71, 0x75, 0x65, 0x6e, 0x74, 0x69, 0x61, 0x6c, 0x5f, 0x31,
  0x2f, 0x64, 0x65, 0x6e, 0x73, 0x65, 0x5f, 0x44, 0x65, 0x6e, 0x73, 0x65,
  0x32, 0x2f, 0x52, 0x65, 0x6c, 0x75, 0x00, 0x00, 0x02, 0x00, 0x00, 0x00,
  0x01, 0x00, 0x00, 0x00, 0x0f, 0x00, 0x00, 0x00, 0xda, 0xfc, 0xff, 0xff,
  0x00, 0x00, 0x00, 0x02, 0x60, 0x00, 0x00, 0x00, 0x03, 0x00, 0x00, 0x00,
  0x2c, 0x00, 0x00, 0x00, 0x04, 0x00, 0x00, 0x00, 0xcc, 0xfc, 0xff, 0xff,
  0x18, 0x00, 0x00, 0x00, 0x04, 0x00, 0x00, 0x00, 0x01, 0x00, 0x00, 0x00,
  0x00, 0x00, 0x00, 0x00, 0x00, 0x00, 0x00, 0x00, 0x00, 0x00, 0x00, 0x00,
  0x01, 0x00, 0x00, 0x00, 0x8a, 0x22, 0x82, 0x38, 0x25, 0x00, 0x00, 0x00,
  0x73, 0x65, 0x71, 0x75, 0x65, 0x6e, 0x74, 0x69, 0x61, 0x6c, 0x5f, 0x31,
  0x2f, 0x64, 0x65, 0x6e, 0x73, 0x65, 0x5f, 0x44, 0x65, 0x6e, 0x73, 0x65,
  0x32, 0x2f, 0x4d, 0x61, 0x74, 0x4d, 0x75, 0x6c, 0x5f, 0x62, 0x69, 0x61,
  0x73, 0x00, 0x00, 0x00, 0x01, 0x00, 0x00, 0x00, 0x0f, 0x00, 0x00, 0x00,
  0x4a, 0xfd, 0xff, 0xff, 0x00, 0x00, 0x00, 0x09, 0x8c, 0x00, 0x00, 0x00,
  0x06, 0x00, 0x00, 0x00, 0x44, 0x00, 0x00, 0x00, 0x04, 0x00, 0x00, 0x00,
  0xd4, 0xfd, 0xff, 0xff, 0x30, 0x00, 0x00, 0x00, 0x24, 0x00, 0x00, 0x00,
  0x18, 0x00, 0x00, 0x00, 0x04, 0x00, 0x00, 0x00, 0x01, 0x00, 0x00, 0x00,
  0x00, 0x00, 0x00, 0x00, 0x00, 0x00, 0x00, 0x00, 0x00, 0x00, 0x00, 0x00,
  0x01, 0x00, 0x00, 0x00, 0x08, 0x29, 0xee, 0x3b, 0x01, 0x00, 0x00, 0x00,
  0xb6, 0x4c, 0x6c, 0x3f, 0x01, 0x00, 0x00, 0x00, 0xdd, 0xbd, 0x16, 0xbf,
  0x39, 0x00, 0x00, 0x00, 0x73, 0x65, 0x71, 0x75, 0x65, 0x6e, 0x74, 0x69,
  0x61, 0x6c, 0x5f, 0x31, 0x2f, 0x64, 0x65, 0x6e, 0x73, 0x65, 0x5f, 0x44,
  0x65, 0x6e, 0x73, 0x65, 0x32, 0x2f, 0x4d, 0x61, 0x74, 0x4d, 0x75, 0x6c,
  0x2f, 0x52, 0x65, 0x61, 0x64, 0x56, 0x61, 0x72, 0x69, 0x61, 0x62, 0x6c,
  0x65, 0x4f, 0x70, 0x2f, 0x74, 0x72, 0x61, 0x6e, 0x73, 0x70, 0x6f, 0x73,
  0x65, 0x00, 0x00, 0x00, 0x02, 0x00, 0x00, 0x00, 0x0f, 0x00, 0x00, 0x00,
  0x32, 0x00, 0x00, 0x00, 0xea, 0xfd, 0xff, 0xff, 0x00, 0x00, 0x00, 0x09,
  0x6c, 0x00, 0x00, 0x00, 0x0a, 0x00, 0x00, 0x00, 0x40, 0x00, 0x00, 0x00,
  0x04, 0x00, 0x00, 0x00, 0x74, 0xfe, 0xff, 0xff, 0x2c, 0x00, 0x00, 0x00,
  0x20, 0x00, 0x00, 0x00, 0x14, 0x00, 0x00, 0x00, 0x04, 0x00, 0x00, 0x00,
  0x01, 0x00, 0x00, 0x00, 0x80, 0xff, 0xff, 0xff, 0xff, 0xff, 0xff, 0xff,
  0x01, 0x00, 0x00, 0x00, 0x03, 0xe2, 0x0b, 0x3c, 0x01, 0x00, 0x00, 0x00,
  0x21, 0x56, 0x0b, 0x40, 0x01, 0x00, 0x00, 0x00, 0x00, 0x00, 0x00, 0x00,
  0x1e, 0x00, 0x00, 0x00, 0x73, 0x65, 0x71, 0x75, 0x65, 0x6e, 0x74, 0x69,
  0x61, 0x6c, 0x5f, 0x31, 0x2f, 0x64, 0x65, 0x6e, 0x73, 0x65, 0x5f, 0x44,
  0x65, 0x6e, 0x73, 0x65, 0x31, 0x2f, 0x52, 0x65, 0x6c, 0x75, 0x00, 0x00,
  0x02, 0x00, 0x00, 0x00, 0x01, 0x00, 0x00, 0x00, 0x32, 0x00, 0x00, 0x00,
  0x6a, 0xfe, 0xff, 0xff, 0x00, 0x00, 0x00, 0x02, 0x60, 0x00, 0x00, 0x00,
  0x04, 0x00, 0x00, 0x00, 0x2c, 0x00, 0x00, 0x00, 0x04, 0x00, 0x00, 0x00,
  0x5c, 0xfe, 0xff, 0xff, 0x18, 0x00, 0x00, 0x00, 0x04, 0x00, 0x00, 0x00,
  0x01, 0x00, 0x00, 0x00, 0x00, 0x00, 0x00, 0x00, 0x00, 0x00, 0x00, 0x00,
  0x00, 0x00, 0x00, 0x00, 0x01, 0x00, 0x00, 0x00, 0x6c, 0x0c, 0x04, 0x37,
  0x25, 0x00, 0x00, 0x00, 0x73, 0x65, 0x71, 0x75, 0x65, 0x6e, 0x74, 0x69,
  0x61, 0x6c, 0x5f, 0x31, 0x2f, 0x64, 0x65, 0x6e, 0x73, 0x65, 0x5f, 0x44,
  0x65, 0x6e, 0x73, 0x65, 0x31, 0x2f, 0x4d, 0x61, 0x74, 0x4d, 0x75, 0x6c,
  0x5f, 0x62, 0x69, 0x61, 0x73, 0x00, 0x00, 0x00, 0x01, 0x00, 0x00, 0x00,
  0x32, 0x00, 0x00, 0x00, 0xda, 0xfe, 0xff, 0xff, 0x00, 0x00, 0x00, 0x09,
  0x88, 0x00, 0x00, 0x00, 0x09, 0x00, 0x00, 0x00, 0x40, 0x00, 0x00, 0x00,
  0x04, 0x00, 0x00, 0x00, 0x64, 0xff, 0xff, 0xff, 0x2c, 0x00, 0x00, 0x00,
  0x20, 0x00, 0x00, 0x00, 0x14, 0x00, 0x00, 0x00, 0x04, 0x00, 0x00, 0x00,
  0x01, 0x00, 0x00, 0x00, 0x00, 0x00, 0x00, 0x00, 0x00, 0x00, 0x00, 0x00,
  0x01, 0x00, 0x00, 0x00, 0xf5, 0x77, 0xa4, 0x3b, 0x01, 0x00, 0x00, 0x00,
  0xaf, 0x0e, 0x05, 0x3f, 0x01, 0x00, 0x00, 0x00, 0x05, 0x2f, 0x23, 0xbf,
  0x39, 0x00, 0x00, 0x00, 0x73, 0x65, 0x71, 0x75, 0x65, 0x6e, 0x74, 0x69,
  0x61, 0x6c, 0x5f, 0x31, 0x2f, 0x64, 0x65, 0x6e, 0x73, 0x65, 0x5f, 0x44,
  0x65, 0x6e, 0x73, 0x65, 0x31, 0x2f, 0x4d, 0x61, 0x74, 0x4d, 0x75, 0x6c,
  0x2f, 0x52, 0x65, 0x61, 0x64, 0x56, 0x61, 0x72, 0x69, 0x61, 0x62, 0x6c,
  0x65, 0x4f, 0x70, 0x2f, 0x74, 0x72, 0x61, 0x6e, 0x73, 0x70, 0x6f, 0x73,
  0x65, 0x00, 0x00, 0x00, 0x02, 0x00, 0x00, 0x00, 0x32, 0x00, 0x00, 0x00,
  0x78, 0x00, 0x00, 0x00, 0x76, 0xff, 0xff, 0xff, 0x00, 0x00, 0x00, 0x09,
  0x74, 0x00, 0x00, 0x00, 0x07, 0x00, 0x00, 0x00, 0x50, 0x00, 0x00, 0x00,
  0x10, 0x00, 0x00, 0x00, 0x0c, 0x00, 0x14, 0x00, 0x04, 0x00, 0x08, 0x00,
  0x0c, 0x00, 0x10, 0x00, 0x0c, 0x00, 0x00, 0x00, 0x30, 0x00, 0x00, 0x00,
  0x24, 0x00, 0x00, 0x00, 0x18, 0x00, 0x00, 0x00, 0x04, 0x00, 0x00, 0x00,
  0x01, 0x00, 0x00, 0x00, 0xdf, 0xff, 0xff, 0xff, 0xff, 0xff, 0xff, 0xff,
  0x00, 0x00, 0x00, 0x00, 0x01, 0x00, 0x00, 0x00, 0x8a, 0x89, 0xcd, 0x3a,
  0x01, 0x00, 0x00, 0x00, 0x00, 0x10, 0x80, 0x3e, 0x01, 0x00, 0x00, 0x00,
  0x00, 0x58, 0x19, 0xbe, 0x17, 0x00, 0x00, 0x00, 0x64, 0x65, 0x6e, 0x73,
  0x65, 0x5f, 0x44, 0x65, 0x6e, 0x73, 0x65, 0x31, 0x5f, 0x69, 0x6e, 0x70,
  0x75, 0x74, 0x5f, 0x69, 0x6e, 0x74, 0x38, 0x00, 0x02, 0x00, 0x00, 0x00,
  0x01, 0x00, 0x00, 0x00, 0x78, 0x00, 0x00, 0x00, 0x00, 0x00, 0x0e, 0x00,
  0x18, 0x00, 0x08, 0x00, 0x07, 0x00, 0x0c, 0x00, 0x10, 0x00, 0x14, 0x00,
  0x0e, 0x00, 0x00, 0x00, 0x00, 0x00, 0x00, 0x09, 0x54, 0x00, 0x00, 0x00,
  0x05, 0x00, 0x00, 0x00, 0x38, 0x00, 0x00, 0x00, 0x10, 0x00, 0x00, 0x00,
  0x0c, 0x00, 0x0c, 0x00, 0x00, 0x00, 0x00, 0x00, 0x04, 0x00, 0x08, 0x00,
  0x0c, 0x00, 0x00, 0x00, 0x18, 0x00, 0x00, 0x00, 0x04, 0x00, 0x00, 0x00,
  0x01, 0x00, 0x00, 0x00, 0x80, 0xff, 0xff, 0xff, 0xff, 0xff, 0xff, 0xff,
  0x00, 0x00, 0x00, 0x00, 0x01, 0x00, 0x00, 0x00, 0x00, 0x00, 0x80, 0x3b,
  0x0d, 0x00, 0x00, 0x00, 0x49, 0x64, 0x65, 0x6e, 0x74, 0x69, 0x74, 0x79,
  0x5f, 0x69, 0x6e, 0x74, 0x38, 0x00, 0x00, 0x00, 0x02, 0x00, 0x00, 0x00,
  0x01, 0x00, 0x00, 0x00, 0x03, 0x00, 0x00, 0x00, 0x04, 0x00, 0x00, 0x00,
  0x4c, 0x00, 0x00, 0x00, 0x30, 0x00, 0x00, 0x00, 0x1c, 0x00, 0x00, 0x00,
  0x04, 0x00, 0x00, 0x00, 0xe6, 0xff, 0xff, 0xff, 0x00, 0x00, 0x00, 0x06,
  0x02, 0x00, 0x00, 0x00, 0x00, 0x00, 0x06, 0x00, 0x06, 0x00, 0x05, 0x00,
  0x06, 0x00, 0x00, 0x00, 0x00, 0x72, 0x0a, 0x00, 0x0e, 0x00, 0x07, 0x00,
  0x00, 0x00, 0x08, 0x00, 0x0a, 0x00, 0x00, 0x00, 0x00, 0x00, 0x00, 0x19,
  0x02, 0x00, 0x00, 0x00, 0x00, 0x00, 0x0a, 0x00, 0x0c, 0x00, 0x07, 0x00,
  0x00, 0x00, 0x08, 0x00, 0x0a, 0x00, 0x00, 0x00, 0x00, 0x00, 0x00, 0x09,
  0x04, 0x00, 0x00, 0x00

};